{
  "version": "1.0",
  "truncation": null,
  "padding": null,
  "added_tokens": [
    {
      "id": 0,
      "content": "<|pad|>",
      "single_word": false,
      "lstrip": false,
      "rstrip": false,
      "normalized": false,
      "special": true
    },
    {
      "id": 1,
      "content": "<|bos|>",
      "single_word": false,
      "lstrip": false,
      "rstrip": false,
      "normalized": false,
      "special": true
    },
    {
      "id": 2,
      "content": "<|eos|>",
      "single_word": false,
      "lstrip": false,
      "rstrip": false,
      "normalized": false,
      "special": true
    },
    {
      "id": 3,
      "content": "<|system|>",
      "single_word": false,
      "lstrip": false,
      "rstrip": false,
      "normalized": false,
      "special": true
    },
    {
      "id": 4,
      "content": "<|user|>",
      "single_word": false,
      "lstrip": false,
      "rstrip": false,
      "normalized": false,
      "special": true
    },
    {
      "id": 5,
      "content": "<|assistant|>",
      "single_word": false,
      "lstrip": false,
      "rstrip": false,
      "normalized": false,
      "special": true
    },
    {
      "id": 6,
      "content": "<|unk|>",
      "single_word": false,
      "lstrip": false,
      "rstrip": false,
      "normalized": false,
      "special": true
    }
  ],
  "normalizer": null,
  "pre_tokenizer": {
    "type": "ByteLevel",
    "add_prefix_space": false,
    "trim_offsets": true,
    "use_regex": true
  },
  "post_processor": null,
  "decoder": {
    "type": "ByteLevel",
    "add_prefix_space": true,
    "trim_offsets": true,
    "use_regex": true
  },
  "model": {
    "type": "BPE",
    "dropout": null,
    "unk_token": "<|unk|>",
    "continuing_subword_prefix": null,
    "end_of_word_suffix": null,
    "fuse_unk": false,
    "byte_fallback": true,
    "ignore_merges": false,
    "vocab": {
      "<|pad|>": 0,
      "<|bos|>": 1,
      "<|eos|>": 2,
      "<|system|>": 3,
      "<|user|>": 4,
      "<|assistant|>": 5,
      "<|unk|>": 6,
      "!": 7,
      "\"": 8,
      "#": 9,
      "$": 10,
      "%": 11,
      "&": 12,
      "'": 13,
      "(": 14,
      ")": 15,
      "*": 16,
      "+": 17,
      ",": 18,
      "-": 19,
      ".": 20,
      "/": 21,
      "0": 22,
      "1": 23,
      "2": 24,
      "3": 25,
      "4": 26,
      "5": 27,
      "6": 28,
      "7": 29,
      "8": 30,
      "9": 31,
      ":": 32,
      ";": 33,
      "<": 34,
      "=": 35,
      ">": 36,
      "?": 37,
      "@": 38,
      "A": 39,
      "B": 40,
      "C": 41,
      "D": 42,
      "E": 43,
      "F": 44,
      "G": 45,
      "H": 46,
      "I": 47,
      "J": 48,
      "K": 49,
      "L": 50,
      "M": 51,
      "N": 52,
      "O": 53,
      "P": 54,
      "Q": 55,
      "R": 56,
      "S": 57,
      "T": 58,
      "U": 59,
      "V": 60,
      "W": 61,
      "X": 62,
      "Y": 63,
      "Z": 64,
      "[": 65,
      "\\": 66,
      "]": 67,
      "^": 68,
      "_": 69,
      "`": 70,
      "a": 71,
      "b": 72,
      "c": 73,
      "d": 74,
      "e": 75,
      "f": 76,
      "g": 77,
      "h": 78,
      "i": 79,
      "j": 80,
      "k": 81,
      "l": 82,
      "m": 83,
      "n": 84,
      "o": 85,
      "p": 86,
      "q": 87,
      "r": 88,
      "s": 89,
      "t": 90,
      "u": 91,
      "v": 92,
      "w": 93,
      "x": 94,
      "y": 95,
      "z": 96,
      "{": 97,
      "|": 98,
      "}": 99,
      "~": 100,
      "¡": 101,
      "¢": 102,
      "£": 103,
      "¤": 104,
      "¥": 105,
      "¦": 106,
      "§": 107,
      "¨": 108,
      "©": 109,
      "ª": 110,
      "«": 111,
      "¬": 112,
      "®": 113,
      "¯": 114,
      "°": 115,
      "±": 116,
      "²": 117,
      "³": 118,
      "´": 119,
      "µ": 120,
      "¶": 121,
      "·": 122,
      "¸": 123,
      "¹": 124,
      "º": 125,
      "»": 126,
      "¼": 127,
      "½": 128,
      "¾": 129,
      "¿": 130,
      "À": 131,
      "Á": 132,
      "Â": 133,
      "Ã": 134,
      "Ä": 135,
      "Å": 136,
      "Æ": 137,
      "Ç": 138,
      "È": 139,
      "É": 140,
      "Ê": 141,
      "Ë": 142,
      "Ì": 143,
      "Í": 144,
      "Î": 145,
      "Ï": 146,
      "Ð": 147,
      "Ñ": 148,
      "Ò": 149,
      "Ó": 150,
      "Ô": 151,
      "Õ": 152,
      "Ö": 153,
      "×": 154,
      "Ø": 155,
      "Ù": 156,
      "Ú": 157,
      "Û": 158,
      "Ü": 159,
      "Ý": 160,
      "Þ": 161,
      "ß": 162,
      "à": 163,
      "á": 164,
      "â": 165,
      "ã": 166,
      "ä": 167,
      "å": 168,
      "æ": 169,
      "ç": 170,
      "è": 171,
      "é": 172,
      "ê": 173,
      "ë": 174,
      "ì": 175,
      "í": 176,
      "î": 177,
      "ï": 178,
      "ð": 179,
      "ñ": 180,
      "ò": 181,
      "ó": 182,
      "ô": 183,
      "õ": 184,
      "ö": 185,
      "÷": 186,
      "ø": 187,
      "ù": 188,
      "ú": 189,
      "û": 190,
      "ü": 191,
      "ý": 192,
      "þ": 193,
      "ÿ": 194,
      "Ā": 195,
      "ā": 196,
      "Ă": 197,
      "ă": 198,
      "Ą": 199,
      "ą": 200,
      "Ć": 201,
      "ć": 202,
      "Ĉ": 203,
      "ĉ": 204,
      "Ċ": 205,
      "ċ": 206,
      "Č": 207,
      "č": 208,
      "Ď": 209,
      "ď": 210,
      "Đ": 211,
      "đ": 212,
      "Ē": 213,
      "ē": 214,
      "Ĕ": 215,
      "ĕ": 216,
      "Ė": 217,
      "ė": 218,
      "Ę": 219,
      "ę": 220,
      "Ě": 221,
      "ě": 222,
      "Ĝ": 223,
      "ĝ": 224,
      "Ğ": 225,
      "ğ": 226,
      "Ġ": 227,
      "ġ": 228,
      "Ģ": 229,
      "ģ": 230,
      "Ĥ": 231,
      "ĥ": 232,
      "Ħ": 233,
      "ħ": 234,
      "Ĩ": 235,
      "ĩ": 236,
      "Ī": 237,
      "ī": 238,
      "Ĭ": 239,
      "ĭ": 240,
      "Į": 241,
      "į": 242,
      "İ": 243,
      "ı": 244,
      "Ĳ": 245,
      "ĳ": 246,
      "Ĵ": 247,
      "ĵ": 248,
      "Ķ": 249,
      "ķ": 250,
      "ĸ": 251,
      "Ĺ": 252,
      "ĺ": 253,
      "Ļ": 254,
      "ļ": 255,
      "Ľ": 256,
      "ľ": 257,
      "Ŀ": 258,
      "ŀ": 259,
      "Ł": 260,
      "ł": 261,
      "Ń": 262,
      "ä¸": 263,
      "ãĢ": 264,
      "çļ": 265,
      "çļĦ": 266,
      "äº": 267,
      "æľ": 268,
      "åı": 269,
      "ãĢĤ": 270,
      "åħ": 271,
      "ä»": 272,
      "å¤": 273,
      "å®": 274,
      "åľ": 275,
      "åĪ": 276,
      "ä½": 277,
      "è¿": 278,
      "æĺ": 279,
      "åĲ": 280,
      "æĪ": 281,
      "çĶ": 282,
      "å°": 283,
      "ä¹": 284,
      "ä¸Ģ": 285,
      "åĬ": 286,
      "æĸ": 287,
      "åĽ": 288,
      "æĺ¯": 289,
      "ãĢģ": 290,
      "æĹ": 291,
      "ç»": 292,
      "å¹": 293,
      "âĢ": 294,
      "åį": 295,
      "è¯": 296,
      "åľ¨": 297,
      "ä¼": 298,
      "ä¸į": 299,
      "åŃ": 300,
      "è®": 301,
      "å¥": 302,
      "äºĨ": 303,
      "æĿ": 304,
      "äºº": 305,
      "æī": 306,
      "æľī": 307,
      "éĢ": 308,
      "å¸": 309,
      "å¾": 310,
      "å·": 311,
      "éĩ": 312,
      "å¼": 313,
      "åº": 314,
      "èĢ": 315,
      "åĩ": 316,
      "è¡": 317,
      "å¤§": 318,
      "çĽ": 319,
      "ĥ½": 320,
      "ä¸Ń": 321,
      "åĨ": 322,
      "å¯": 323,
      "çī": 324,
      "æĬ": 325,
      "åĮ": 326,
      "è§": 327,
      "æķ": 328,
      "åĴ": 329,
      "èµ": 330,
      "è´": 331,
      "æĢ": 332,
      "çİ": 333,
      "æŃ": 334,
      "ä¸Ĭ": 335,
      "è¦": 336,
      "æĶ": 337,
      "å¿": 338,
      "åĴĮ": 339,
      "å±": 340,
      "æĪĳ": 341,
      "æł": 342,
      "å½": 343,
      "èĩ": 344,
      "çľ": 345,
      "ç§": 346,
      "éĻ": 347,
      "çº": 348,
      "éĹ": 349,
      "éĿ": 350,
      "ä»¥": 351,
      "æ°": 352,
      "åĽ½": 353,
      "æĥ": 354,
      "åİ": 355,
      "ä¸º": 356,
      "æİ": 357,
      "è¦ģ": 358,
      "âĢľ": 359,
      "å¹´": 360,
      "âĢĿ": 361,
      "ä¿": 362,
      "åĳ": 363,
      "è½": 364,
      "åĵ": 365,
      "ä¸ª": 366,
      "éģ": 367,
      "æ³": 368,
      "åĪ°": 369,
      "æ²": 370,
      "çĶŁ": 371,
      "æµ": 372,
      "è¿Ļ": 373,
      "èĥ½": 374,
      "å¦": 375,
      "é¢": 376,
      "æŀ": 377,
      "çĶ¨": 378,
      "æĹ¶": 379,
      "åĩº": 380,
      "æĭ": 381,
      "ç½": 382,
      "åı¯": 383,
      "æĿ¥": 384,
      "çĲ": 385,
      "ä¼ļ": 386,
      "æ¯": 387,
      "åī": 388,
      "ä¾": 389,
      "..": 390,
      "è¡Į": 391,
      "ä¸ĭ": 392,
      "çŃ": 393,
      "å®¶": 394,
      "æ¬": 395,
      "åıĳ": 396,
      "ç«": 397,
      "æĦ": 398,
      "ä½ľ": 399,
      "æĮ": 400,
      "åĢ": 401,
      "ç¾": 402,
      "å°±": 403,
      "å¤ļ": 404,
      "é«": 405,
      "æĪĲ": 406,
      "è¾": 407,
      "ä¸ļ": 408,
      "æĸ°": 409,
      "æ¸": 410,
      "éĽ": 411,
      "ä»ĸ": 412,
      "èĩª": 413,
      "åľ°": 414,
      "å°ı": 415,
      "èĤ": 416,
      "å¯¹": 417,
      "çĤ": 418,
      "ä¹Ł": 419,
      "æ±": 420,
      "åŁ": 421,
      "éĺ": 422,
      "åģ": 423,
      "åħ¬": 424,
      "åŃ¦": 425,
      "æĻ": 426,
      "æĸ¹": 427,
      "é«ĺ": 428,
      "æ´": 429,
      "åŃĲ": 430,
      "å·¥": 431,
      "20": 432,
      "æĹ¥": 433,
      "æı": 434,
      "å¥½": 435,
      "åħ¨": 436,
      "æĽ": 437,
      "åĪĨ": 438,
      "åĲİ": 439,
      "ä»¬": 440,
      "åĬ¨": 441,
      "äºİ": 442,
      "çĻ": 443,
      "ç®": 444,
      "ç¾İ": 445,
      "è¶": 446,
      "æľ¬": 447,
      "éĤ": 448,
      "çĲĨ": 449,
      "è·": 450,
      "åķ": 451,
      "é¡": 452,
      "éķ": 453,
      "éĥ": 454,
      "è¿ĩ": 455,
      "å¼Ģ": 456,
      "å¤©": 457,
      "éĥ½": 458,
      "åĬĽ": 459,
      "ç¨": 460,
      "å¸Ĥ": 461,
      "éĿ¢": 462,
      "èī": 463,
      "ç½ĳ": 464,
      "èģ": 465,
      "ä½ł": 466,
      "ç¬": 467,
      "å¥³": 468,
      "æľº": 469,
      "ä¹ĭ": 470,
      "ä¸»": 471,
      "çĦ": 472,
      "çĿ": 473,
      "åĵģ": 474,
      "å¿ĥ": 475,
      "çĪ": 476,
      "çľĭ": 477,
      "çİ°": 478,
      "åīį": 479,
      "å¾Ĺ": 480,
      "è¿Ľ": 481,
      "æĥħ": 482,
      "åĲĮ": 483,
      "åĲĪ": 484,
      "å§": 485,
      "ç»ı": 486,
      "çķ": 487,
      "çŃī": 488,
      "å»": 489,
      "æľĢ": 490,
      "ç¤": 491,
      "æĢ§": 492,
      "ä½ĵ": 493,
      "éĥ¨": 494,
      "çŁ": 495,
      "éļ": 496,
      "å®ŀ": 497,
      "èĢĮ": 498,
      "æ³ķ": 499,
      "å®ļ": 500,
      "é£": 501,
      "å¦Ĥ": 502,
      "åĿ": 503,
      "è¯´": 504,
      "äº§": 505,
      "åĬł": 506,
      "æľĪ": 507,
      "ç©": 508,
      "èĢħ": 509,
      "èĪ": 510,
      "äºĭ": 511,
      "éģĵ": 512,
      "è°": 513,
      "æį": 514,
      "åĮĸ": 515,
      "æīĢ": 516,
      "ç´": 517,
      "æīĭ": 518,
      "éľ": 519,
      "éĩį": 520,
      "è¢": 521,
      "åº¦": 522,
      "å¾Ī": 523,
      "ä¸İ": 524,
      "åħ¶": 525,
      "çĶµ": 526,
      "æıĲ": 527,
      "å¤ĸ": 528,
      "è½¦": 529,
      "æĸĩ": 530,
      "æ¶": 531,
      "è¿ĺ": 532,
      "ç¥": 533,
      "è£": 534,
      "æģ": 535,
      "åħ³": 536,
      "çĿĢ": 537,
      "éĢļ": 538,
      "èĬ": 539,
      "çĦ¶": 540,
      "æŁ": 541,
      "éķ¿": 542,
      "æĽ´": 543,
      "ç³": 544,
      "åľº": 545,
      "éĩĳ": 546,
      "åħ¥": 547,
      "èĲ": 548,
      "åĨħ": 549,
      "çĤ¹": 550,
      "æ·": 551,
      "å¢": 552,
      "ä¸ī": 553,
      "é»": 554,
      "éĶ": 555,
      "çł": 556,
      "å°Ĩ": 557,
      "ä¿Ŀ": 558,
      "å±ķ": 559,
      "èµ·": 560,
      "éĹ´": 561,
      "å¹³": 562,
      "èµĦ": 563,
      "é¦": 564,
      "èº": 565,
      "æ¬¡": 566,
      "æ°´": 567,
      "åĬ¡": 568,
      "ç¬¬": 569,
      "æ¯Ķ": 570,
      "ä¹Ī": 571,
      "å»º": 572,
      "æľŁ": 573,
      "ç²": 574,
      "æĦı": 575,
      "çĽ¸": 576,
      "åĪ¶": 577,
      "éħ": 578,
      "éĩı": 579,
      "åıĬ": 580,
      "éĩĮ": 581,
      "åĸ": 582,
      "åİ»": 583,
      "å£": 584,
      "ä¿¡": 585,
      "è¢«": 586,
      "éĤ£": 587,
      "èĭ": 588,
      "çĽ®": 589,
      "ä½į": 590,
      "è¡¨": 591,
      "å®ī": 592,
      "ä½Ĩ": 593,
      "åı¸": 594,
      "è¨": 595,
      "åı¯ä»¥": 596,
      "èº«": 597,
      "æĺİ": 598,
      "èī²": 599,
      "çī¹": 600,
      "åĽł": 601,
      "æŃ£": 602,
      "æŀľ": 603,
      "ç³»": 604,
      "èĢģ": 605,
      "åĮº": 606,
      "ç®¡": 607,
      "åĪ©": 608,
      "äºĽ": 609,
      "æĥ³": 610,
      "ä¸Ģä¸ª": 611,
      "æĹł": 612,
      "æŃ¤": 613,
      "çī©": 614,
      "åĲį": 615,
      "å½±": 616,
      "æ¡": 617,
      "æ²¡": 618,
      "æľį": 619,
      "å½ĵ": 620,
      "å¸¸": 621,
      "æ¨": 622,
      "åĭ": 623,
      "ç¨ĭ": 624,
      "è®¾": 625,
      "çĸ": 626,
      "00": 627,
      "æ°ĳ": 628,
      "äº¤": 629,
      "ç§į": 630,
      "çģ": 631,
      "æķĻ": 632,
      "é©": 633,
      "åºĶ": 634,
      "åĳĺ": 635,
      "æº": 636,
      "201": 637,
      "æĦŁ": 638,
      "éĴ": 639,
      "åħ¬åı¸": 640,
      "åģļ": 641,
      "åı°": 642,
      "çĥ": 643,
      "å¼ı": 644,
      "æĤ": 645,
      "èĥ": 646,
      "éª": 647,
      "ä½¿": 648,
      "çº¿": 649,
      "æ´»": 650,
      "ç¦": 651,
      "æĶ¿": 652,
      "æķ°": 653,
      "ç±": 654,
      "æĴ": 655,
      "åħĥ": 656,
      "èĦ": 657,
      "æĪĳä»¬": 658,
      "å¹¶": 659,
      "å·²": 660,
      "å°ĳ": 661,
      "æİ¥": 662,
      "ä»İ": 663,
      "è§Ĩ": 664,
      "è§£": 665,
      "åķĨ": 666,
      "æ¼": 667,
      "ä»£": 668,
      "èį": 669,
      "ç¼": 670,
      "ä»¶": 671,
      "æĬĢ": 672,
      "æ»": 673,
      "åıª": 674,
      "åı£": 675,
      "çĹ": 676,
      "æĵ": 677,
      "æµ·": 678,
      "æĪĸ": 679,
      "éĵ": 680,
      "ä¸ŃåĽ½": 681,
      "è®¡": 682,
      "ç¡": 683,
      "èĻ": 684,
      "çŁ¥": 685,
      "å·¥ä½ľ": 686,
      "å·±": 687,
      "çīĩ": 688,
      "åŁº": 689,
      "çľŁ": 690,
      "å¥¹": 691,
      "éŁ": 692,
      "äºĮ": 693,
      "æł·": 694,
      "æīĵ": 695,
      "åĽŀ": 696,
      "æĬ¥": 697,
      "çĽ´": 698,
      "æĶ¾": 699,
      "èĩªå·±": 700,
      "æµģ": 701,
      "æĮģ": 702,
      "ä»»": 703,
      "åİŁ": 704,
      "ãĢĭ": 705,
      "éĽĨ": 706,
      "åĲĦ": 707,
      "ãĢĬ": 708,
      "éľĢ": 709,
      "é¢ĺ": 710,
      "çĭ": 711,
      "å¼º": 712,
      "åŀ": 713,
      "æĶ¶": 714,
      "éĹ®": 715,
      "èª": 716,
      "éĸ": 717,
      "åĲĳ": 718,
      "ç§ĳ": 719,
      "åıĹ": 720,
      "å®Į": 721,
      "æį®": 722,
      "éĹ¨": 723,
      "è·¯": 724,
      "éĻ¢": 725,
      "å¨": 726,
      "æ¸¸": 727,
      "æ£": 728,
      "ç¤º": 729,
      "ä¸¤": 730,
      "æł¼": 731,
      "è¥": 732,
      "çĲĥ": 733,
      "çı": 734,
      "è®©": 735,
      "ç«Ļ": 736,
      "æ±Ĥ": 737,
      "æ¥": 738,
      "æİ¨": 739,
      "å¿«": 740,
      "ä»·": 741,
      "çĻ½": 742,
      "èİ": 743,
      "åĽ¾": 744,
      "ä¼ģ": 745,
      "åįģ": 746,
      "çĶ±": 747,
      "ä¸ĩ": 748,
      "è´¹": 749,
      "è¥¿": 750,
      "ç¥ŀ": 751,
      "åĮĹ": 752,
      "åŁİ": 753,
      "ç²¾": 754,
      "ç«ĭ": 755,
      "åĶ": 756,
      "ç¤¾": 757,
      "åıĭ": 758,
      "æħ": 759,
      "çĪ±": 760,
      "ç»Ļ": 761,
      "é£İ": 762,
      "æ¸ħ": 763,
      "èĩ³": 764,
      "åĦ": 765,
      "æĬķ": 766,
      "æºĲ": 767,
      "å¤´": 768,
      "åħĪ": 769,
      "æ®": 770,
      "éĢĻ": 771,
      "æ°Ķ": 772,
      "ç»ĵ": 773,
      "éĢł": 774,
      "æķ´": 775,
      "åįķ": 776,
      "è´¨": 777,
      "èģĶ": 778,
      "è®°": 779,
      "æľ¯": 780,
      "10": 781,
      "åł": 782,
      "æĪ¿": 783,
      "....": 784,
      "æģ¯": 785,
      "æĪ·": 786,
      "æ³¨": 787,
      "ä¾Ľ": 788,
      "åħ·": 789,
      "å®¢": 790,
      "çº§": 791,
      "ä¸ĵ": 792,
      "ãĢĤâĢĿ": 793,
      "éĿŀ": 794,
      "ãģ": 795,
      "ä»Ĭ": 796,
      "è¿ĳ": 797,
      "å¢ŀ": 798,
      "æłĩ": 799,
      "åĨį": 800,
      "åĻ": 801,
      "åħī": 802,
      "ä¸ľ": 803,
      "å¯¼": 804,
      "æ²¡æľī": 805,
      "åĥ": 806,
      "æĮĩ": 807,
      "éĢī": 808,
      "ä»Ģ": 809,
      "åŀĭ": 810,
      "æĬĬ": 811,
      "å®¹": 812,
      "çħ": 813,
      "åĪĽ": 814,
      "è±": 815,
      "è§Ħ": 816,
      "æĢ»": 817,
      "å¤Ħ": 818,
      "å¸ĥ": 819,
      "ç»Ł": 820,
      "è°ĥ": 821,
      "æ¢": 822,
      "æĪĺ": 823,
      "å¸Ī": 824,
      "ç©º": 825,
      "æ¯ı": 826,
      "èĮ": 827,
      "ä¼ł": 828,
      "ä¸ĸ": 829,
      "éł": 830,
      "åĮħ": 831,
      "èĳ": 832,
      "è¿Ĳ": 833,
      "åħ±": 834,
      "çµ": 835,
      "æīį": 836,
      "é¡¹": 837,
      "ç¶": 838,
      "å²": 839,
      "èħ": 840,
      "æĲ": 841,
      "æķĪ": 842,
      "æĳ": 843,
      "èĤ²": 844,
      "ä½ķ": 845,
      "ä¹Ĳ": 846,
      "è²": 847,
      "åįĹ": 848,
      "çĶ·": 849,
      "æ·±": 850,
      "æĺĵ": 851,
      "æĶ¹": 852,
      "å¸¦": 853,
      "èŃ": 854,
      "åĪ«": 855,
      "èĬ±": 856,
      "è¶ħ": 857,
      "çīĪ": 858,
      "åıĳå±ķ": 859,
      "æĴŃ": 860,
      "åıĺ": 861,
      "ç»Ħ": 862,
      "å±±": 863,
      "æ¶Ī": 864,
      "ä¼ģä¸ļ": 865,
      "æŃ¥": 866,
      "èĤ¡": 867,
      "çłĶ": 868,
      "åĻ¨": 869,
      "èĢĥ": 870,
      "æĶ¯": 871,
      "æľįåĬ¡": 872,
      "çķĮ": 873,
      "åıĸ": 874,
      "åıĪ": 875,
      "æŁ¥": 876,
      "å°±æĺ¯": 877,
      "å¤ĩ": 878,
      "åĽĽ": 879,
      "æĸ¯": 880,
      "è³": 881,
      "æĸĻ": 882,
      "ä¾Ĩ": 883,
      "è£ħ": 884,
      "è¯Ŀ": 885,
      "å¹²": 886,
      "çİĭ": 887,
      "å¹¿": 888,
      "é¢ĳ": 889,
      "è¾¾": 890,
      "åĤ": 891,
      "ä»Ģä¹Ī": 892,
      "æł¡": 893,
      "è¿Ľè¡Į": 894,
      "åºĹ": 895,
      "å¤ª": 896,
      "è®¤": 897,
      "å½¢": 898,
      "æľĥ": 899,
      "æĻĤ": 900,
      "æ²»": 901,
      "é¦ĸ": 902,
      "è¯¥": 903,
      "æ¨¡": 904,
      "éĺŁ": 905,
      "åĬŁ": 906,
      "äº¬": 907,
      "å±Ģ": 908,
      "åĢĭ": 909,
      "è¯ģ": 910,
      "éĢŁ": 911,
      "é¢Ĩ": 912,
      "åĳĬ": 913,
      "åĢ¼": 914,
      "èµ°": 915,
      "ä¹¦": 916,
      "çĤº": 917,
      "è§Ĥ": 918,
      "ç±»": 919,
      "æ¬¾": 920,
      "åĮ»": 921,
      "æĹ¶éĹ´": 922,
      "åĳ¨": 923,
      "éĺ²": 924,
      "æļ": 925,
      "ä¼ĺ": 926,
      "å½©": 927,
      "...": 928,
      "éĻĲ": 929,
      "å®ĥ": 930,
      "é©¬": 931,
      "åĬŀ": 932,
      "çĮ": 933,
      "èĲ¥": 934,
      "æľª": 935,
      "åįİ": 936,
      "èı": 937,
      "å§Ķ": 938,
      "åĩĨ": 939,
      "è¶Ĭ": 940,
      "èĬĤ": 941,
      "çľģ": 942,
      "çīĮ": 943,
      "åı·": 944,
      "çľ¼": 945,
      "åĬ©": 946,
      "èµĽ": 947,
      "æ¡Ī": 948,
      "æ¿": 949,
      "éĹ®é¢ĺ": 950,
      "åĦ¿": 951,
      "çª": 952,
      "è½¬": 953,
      "å¼ķ": 954,
      "ä¾¿": 955,
      "çİ©": 956,
      "ç¡®": 957,
      "ç®¡çĲĨ": 958,
      "å¸Ĥåľº": 959,
      "âĢĶ": 960,
      "é¥": 961,
      "æĿĥ": 962,
      "è§ģ": 963,
      "åįĩ": 964,
      "ãĥ": 965,
      "åıį": 966,
      "åĽ¢": 967,
      "ç¢": 968,
      "éº": 969,
      "å©": 970,
      "ä½¿çĶ¨": 971,
      "çĹħ": 972,
      "çº¦": 973,
      "ä»ĸä»¬": 974,
      "éħį": 975,
      "è®º": 976,
      "åħļ": 977,
      "æ¹": 978,
      "è¶³": 979,
      "æŀģ": 980,
      "è®®": 981,
      "çİĩ": 982,
      "åĩł": 983,
      "ç»Ń": 984,
      "äºĶ": 985,
      "æĺŁ": 986,
      "éľĢè¦ģ": 987,
      "çĬ": 988,
      "é¾": 989,
      "åħį": 990,
      "ä¹ł": 991,
      "åĨ³": 992,
      "å¦Ĥæŀľ": 993,
      "åľĭ": 994,
      "å§ĭ": 995,
      "ä½İ": 996,
      "ä½ı": 997,
      "çħ§": 998,
      "éĻħ": 999,
      "å·ŀ": 1000,
      "æĸ½": 1001,
      "åŃĹ": 1002,
      "æĭį": 1003,
      "åĢĻ": 1004,
      "è©": 1005,
      "ãĤ": 1006,
      "çĻ¾": 1007,
      "çİ¯": 1008,
      "è¿Ļä¸ª": 1009,
      "æİĴ": 1010,
      "å£«": 1011,
      "éŁ³": 1012,
      "æł¹": 1013,
      "å®ĺ": 1014,
      "åŃĺ": 1015,
      "è§Ĩé¢ĳ": 1016,
      "äºļ": 1017,
      "åĥı": 1018,
      "çĥŃ": 1019,
      "è¾ĥ": 1020,
      "æĵį": 1021,
      "åı¯èĥ½": 1022,
      "é£Ł": 1023,
      "å¿ħ": 1024,
      ":âĢľ": 1025,
      "æĿ¡": 1026,
      "è¯·": 1027,
      "æıĲä¾Ľ": 1028,
      "ä¸Ķ": 1029,
      "æĿĲ": 1030,
      "åħĭ": 1031,
      "æľĽ": 1032,
      "ç®Ĺ": 1033,
      "è½½": 1034,
      "å¼ł": 1035,
      "æĪı": 1036,
      "å¡": 1037,
      "éļ¾": 1038,
      "åĲĥ": 1039,
      "æĤ¨": 1040,
      "çĨ": 1041,
      "æĢĿ": 1042,
      "åį³": 1043,
      "é»ĳ": 1044,
      "å¢ĥ": 1045,
      "çģ«": 1046,
      "æŀĦ": 1047,
      "æŀĹ": 1048,
      "æİ§": 1049,
      "å¤į": 1050,
      "å¾®": 1051,
      "åıĤ": 1052,
      "æĭī": 1053,
      "åķª": 1054,
      "ä¸įæĺ¯": 1055,
      "äº§åĵģ": 1056,
      "åĬ¿": 1057,
      "éĻ¤": 1058,
      "åĨµ": 1059,
      "éªĮ": 1060,
      "åĨĽ": 1061,
      "è¯ķ": 1062,
      "ç½®": 1063,
      "æĬĢæľ¯": 1064,
      "èĲ½": 1065,
      "ä¿®": 1066,
      "å¦¹": 1067,
      "11": 1068,
      "æĬ¤": 1069,
      "è´£": 1070,
      "çļĦäºº": 1071,
      "éĢļè¿ĩ": 1072,
      "ç¿": 1073,
      "çº¢": 1074,
      "æĢİ": 1075,
      "ç©¶": 1076,
      "éħĴ": 1077,
      "ç§°": 1078,
      "å£°": 1079,
      "éĿĴ": 1080,
      "å¾·": 1081,
      "åŃ©": 1082,
      "èģĮ": 1083,
      "èĩ´": 1084,
      "è¾¹": 1085,
      "èŀ": 1086,
      "æĢģ": 1087,
      "èĭ±": 1088,
      "åĸľ": 1089,
      "12": 1090,
      "éĶĢ": 1091,
      "å·²ç»ı": 1092,
      "ä¼Ĺ": 1093,
      "æµİ": 1094,
      "æ¼Ķ": 1095,
      "ä¿¡æģ¯": 1096,
      "ãĢĮ": 1097,
      "è¨Ģ": 1098,
      "çļĦä¸Ģ": 1099,
      "é¦Ļ": 1100,
      "äºĨä¸Ģ": 1101,
      "é¤": 1102,
      "åįļ": 1103,
      "éŃ": 1104,
      "ãĢį": 1105,
      "åĪĹ": 1106,
      "åĪĴ": 1107,
      "æ»¡": 1108,
      "in": 1109,
      "åıĮ": 1110,
      "éĻ©": 1111,
      "çĻ¼": 1112,
      "å¹³åı°": 1113,
      "è¯Ĩ": 1114,
      "åĢĳ": 1115,
      "æ±Ł": 1116,
      "å°į": 1117,
      "æĺ¾": 1118,
      "åĳ½": 1119,
      "ãĢĲ": 1120,
      "ãĢĳ": 1121,
      "åħ»": 1122,
      "é¢Ħ": 1123,
      "è¿ŀ": 1124,
      "å¤±": 1125,
      "19": 1126,
      "æ¬¢": 1127,
      "æĹ©": 1128,
      "æ¿Ģ": 1129,
      "æ©": 1130,
      "åŁŁ": 1131,
      "å°Ķ": 1132,
      "æ®µ": 1133,
      "å®Ŀ": 1134,
      "å¾Ģ": 1135,
      "åĽ½å®¶": 1136,
      "æ²¹": 1137,
      "æĿ¿": 1138,
      "è§ī": 1139,
      "çĶŁæ´»": 1140,
      "æĻ¯": 1141,
      "æ½": 1142,
      "ä¸ĸçķĮ": 1143,
      "èİ·": 1144,
      "å®īåħ¨": 1145,
      "ä¹°": 1146,
      "ç´ł": 1147,
      "è·Ł": 1148,
      "er": 1149,
      "åĪĻ": 1150,
      "ç¬¬ä¸Ģ": 1151,
      "éģİ": 1152,
      "ç¥¨": 1153,
      "éļı": 1154,
      "æ¸¸æĪı": 1155,
      "æĺ¯ä¸Ģ": 1156,
      "æĩ": 1157,
      "ww": 1158,
      "åĽłä¸º": 1159,
      "æĻº": 1160,
      "ä»½": 1161,
      "å®¤": 1162,
      "éĿŀå¸¸": 1163,
      "æ¥Ń": 1164,
      "éĩĩ": 1165,
      "ç¦»": 1166,
      "èĳĹ": 1167,
      "è´Ń": 1168,
      "ç¦ı": 1169,
      "æĿĳ": 1170,
      "æī¾": 1171,
      "æĸŃ": 1172,
      "çŃĸ": 1173,
      "å¤Ł": 1174,
      "è¯Ħ": 1175,
      "åŃ¦çĶŁ": 1176,
      "é»Ħ": 1177,
      "åľ¨çº¿": 1178,
      "ç»ıæµİ": 1179,
      "æĿİ": 1180,
      "ä¾ĭ": 1181,
      "åģ¥": 1182,
      "èŀį": 1183,
      "åºķ": 1184,
      "æ±½": 1185,
      "ç¯": 1186,
      "éĴ±": 1187,
      "æĮī": 1188,
      "åºľ": 1189,
      "ç»´": 1190,
      "åĵį": 1191,
      "è®¸": 1192,
      "åĺ": 1193,
      "åĲ§": 1194,
      "åį¡": 1195,
      "æĸ¹éĿ¢": 1196,
      "ç¾İå¥³": 1197,
      "è¯Ń": 1198,
      "èªª": 1199,
      "âĢĿ,": 1200,
      "è¼": 1201,
      "èĹ": 1202,
      "åĵª": 1203,
      "an": 1204,
      "ç¾¤": 1205,
      "éĩįè¦ģ": 1206,
      "æķĻèĤ²": 1207,
      "åĶ®": 1208,
      "äººçļĦ": 1209,
      "æĹ¶åĢĻ": 1210,
      "å¾Īå¤ļ": 1211,
      "ç·": 1212,
      "æīĢä»¥": 1213,
      "ç½ĳç«Ļ": 1214,
      "äº¿": 1215,
      "co": 1216,
      "èĮĥ": 1217,
      "å¤§å®¶": 1218,
      "äºĴ": 1219,
      "æµĭ": 1220,
      "çİ°åľ¨": 1221,
      "åĮĹäº¬": 1222,
      "çłĶç©¶": 1223,
      "ç¾İåĽ½": 1224,
      "ç«ł": 1225,
      "ç±³": 1226,
      "è±¡": 1227,
      "è§Ĵ": 1228,
      "æĥħåĨµ": 1229,
      "åĪĩ": 1230,
      "è¡¨ç¤º": 1231,
      "çŁ¥éģĵ": 1232,
      "åĭķ": 1233,
      "åª": 1234,
      "åĪ°äºĨ": 1235,
      "æŃ»": 1236,
      "é¸": 1237,
      "ä¾Ŀ": 1238,
      "çŁ³": 1239,
      "è½»": 1240,
      "ä»¥åıĬ": 1241,
      "ä¹ī": 1242,
      "åįĬ": 1243,
      "çĽĳ": 1244,
      "å¥½çļĦ": 1245,
      "ç¤¾ä¼ļ": 1246,
      "åĩ»": 1247,
      "éĢģ": 1248,
      "å¾Į": 1249,
      "é¡¹çĽ®": 1250,
      "ä¸Ŀ": 1251,
      "è´§": 1252,
      "å¤§çļĦ": 1253,
      "æ¸¯": 1254,
      "åįı": 1255,
      "å«": 1256,
      "æ£Ģ": 1257,
      "è´¢": 1258,
      "çĩ": 1259,
      "å·´": 1260,
      "çĽĬ": 1261,
      "ä½Ĩæĺ¯": 1262,
      "åħħ": 1263,
      "éĻį": 1264,
      "æĬķèµĦ": 1265,
      "ç§¯": 1266,
      "åº·": 1267,
      "ä¸»è¦ģ": 1268,
      "ä¹Łæĺ¯": 1269,
      "ç³»ç»Ł": 1270,
      "æ´»åĬ¨": 1271,
      "åİĨ": 1272,
      "éĥ½æĺ¯": 1273,
      "ä»ĭ": 1274,
      "......": 1275,
      "æķħ": 1276,
      "è»": 1277,
      "éĶĻ": 1278,
      "çł´": 1279,
      "ä»ħ": 1280,
      "è¿Ļæł·": 1281,
      "å»ºè®¾": 1282,
      "æĻ®": 1283,
      "è¡Ģ": 1284,
      "æĹ¥æľ¬": 1285,
      "ç»Ĩ": 1286,
      "éĨ": 1287,
      "éĸĭ": 1288,
      "åĲĹ": 1289,
      "æł¸": 1290,
      "è¦ģæ±Ĥ": 1291,
      "çĽ®åīį": 1292,
      "éĢĤ": 1293,
      "èĩªå·±çļĦ": 1294,
      "å¯Ĩ": 1295,
      "å±ħ": 1296,
      "15": 1297,
      "å¯Į": 1298,
      "æĹħ": 1299,
      "æĭ©": 1300,
      "æīĭæľº": 1301,
      "éĺ³": 1302,
      "åĳ³": 1303,
      "çķĻ": 1304,
      "åĲĮæĹ¶": 1305,
      "å¤ľ": 1306,
      "åį´": 1307,
      "æ´²": 1308,
      "å§Ĳ": 1309,
      "åģľ": 1310,
      "||": 1311,
      "ä¸įåĲĮ": 1312,
      "åľŁ": 1313,
      "ç»Ī": 1314,
      "åįĥ": 1315,
      "æķ°æį®": 1316,
      "èĪĩ": 1317,
      "äº«": 1318,
      "åŃ¸": 1319,
      "åŃ£": 1320,
      "30": 1321,
      "çļĦæĺ¯": 1322,
      "è¿ĺæĺ¯": 1323,
      "æĶ¿åºľ": 1324,
      "èīº": 1325,
      "è¿ĻäºĽ": 1326,
      "æĢİä¹Ī": 1327,
      "åĪĿ": 1328,
      "ä¹ħ": 1329,
      "ç¼ĸ": 1330,
      "ä¸Ńå¿ĥ": 1331,
      "é¾Ļ": 1332,
      "äº²": 1333,
      "ä¸¥": 1334,
      "åĽ´": 1335,
      "åĽŃ": 1336,
      "on": 1337,
      "çĽ¸åħ³": 1338,
      "å¥ĩ": 1339,
      "å¥Ĺ": 1340,
      "çı¾": 1341,
      "æŃ¢": 1342,
      "ä¸¾": 1343,
      "è®¾è®¡": 1344,
      "æī¿": 1345,
      "ä¸ŃçļĦ": 1346,
      "éĢīæĭ©": 1347,
      "åĽ½éĻħ": 1348,
      "ç¬ĳ": 1349,
      "åİĭ": 1350,
      "åĨľ": 1351,
      "åĿĩ": 1352,
      "å±ŀ": 1353,
      "æ¯į": 1354,
      "å¼Ģå§ĭ": 1355,
      "è´Ł": 1356,
      "å¾ĭ": 1357,
      "è¯»": 1358,
      "éĵ¶": 1359,
      "æīĢæľī": 1360,
      "åħ¶ä»ĸ": 1361,
      "æĸ¹å¼ı": 1362,
      "å½ķ": 1363,
      "å¥¶": 1364,
      "åĲ¬": 1365,
      "äºĳ": 1366,
      "çıŃ": 1367,
      "æ©Ł": 1368,
      "éľ²": 1369,
      "çªģ": 1370,
      "çĪĨ": 1371,
      "æ¦": 1372,
      "å±Ĥ": 1373,
      "éĸĵ": 1374,
      "æ¸©": 1375,
      "ç¶ĵ": 1376,
      "çºª": 1377,
      "18": 1378,
      "åĵ¥": 1379,
      "éĤĦ": 1380,
      "é«Ķ": 1381,
      "èŃ¦": 1382,
      "æ¾": 1383,
      "äº®": 1384,
      "çłģ": 1385,
      "ç®Ģ": 1386,
      "ä¸ĢäºĽ": 1387,
      "åı²": 1388,
      "æıĴ": 1389,
      "äººæ°ĳ": 1390,
      "éĢ²": 1391,
      "å¸Į": 1392,
      "çķ¥": 1393,
      "åı¦": 1394,
      "çĶµå½±": 1395,
      "å¿µ": 1396,
      "è¿ľ": 1397,
      "åı¤": 1398,
      ",âĢľ": 1399,
      "çļ®": 1400,
      "æĪĲä¸º": 1401,
      "èĪ¬": 1402,
      "å¾ħ": 1403,
      "ä¸įèĥ½": 1404,
      "ä¸ĭè½½": 1405,
      "å¸®": 1406,
      "å°Ħ": 1407,
      "é²": 1408,
      "åĨħå®¹": 1409,
      "å¿Ĺ": 1410,
      "è«": 1411,
      "äºī": 1412,
      "åĳ¢": 1413,
      "èį¯": 1414,
      "ç«¯": 1415,
      "åŁ¹": 1416,
      "æ²³": 1417,
      "ä¸ĬçļĦ": 1418,
      "çĬ¶": 1419,
      "è¡£": 1420,
      "å·®": 1421,
      "çĸĹ": 1422,
      "é£ŀ": 1423,
      "æĻļ": 1424,
      "æĺ¥": 1425,
      "äººåĳĺ": 1426,
      "æį¢": 1427,
      "èĽ": 1428,
      "è¯¾": 1429,
      "å½±åĵį": 1430,
      "åĿļ": 1431,
      "èĤī": 1432,
      "æŁĲ": 1433,
      "æĪĳçļĦ": 1434,
      "ä¹³": 1435,
      "è½¯": 1436,
      "åī¯": 1437,
      "éĥ¨åĪĨ": 1438,
      "çŁŃ": 1439,
      "å¤«": 1440,
      "åŃ¦ä¹ł": 1441,
      "çĵ": 1442,
      "ç»ĩ": 1443,
      "å¯¹äºİ": 1444,
      "ç§Ģ": 1445,
      "ä½ľä¸º": 1446,
      "ç²ī": 1447,
      "æ±½è½¦": 1448,
      "æŃ¦": 1449,
      "åŃ©åŃĲ": 1450,
      "åı«": 1451,
      "æĸ¼": 1452,
      "åģĩ": 1453,
      "200": 1454,
      "å®³": 1455,
      "éĺ¿": 1456,
      "æ¬§": 1457,
      "--": 1458,
      "åĵģçīĮ": 1459,
      "åĨĻ": 1460,
      "èĥ½åĬĽ": 1461,
      "åĩı": 1462,
      "è¡Įä¸ļ": 1463,
      "Â·": 1464,
      "åĲ¦": 1465,
      "å¦ĩ": 1466,
      "ä¸ĵä¸ļ": 1467,
      "åĲĪä½ľ": 1468,
      "çĶŁäº§": 1469,
      "éĢĢ": 1470,
      "éĽ»": 1471,
      "åĸĦ": 1472,
      "åķĬ": 1473,
      "æ³¢": 1474,
      "åħ´": 1475,
      "å¯¦": 1476,
      "çĦ¡": 1477,
      "åħŃ": 1478,
      "å¥ĸ": 1479,
      "ãĢĤ,": 1480,
      "éĢ¼": 1481,
      "èĨ": 1482,
      "ç§ĳæĬĢ": 1483,
      "èĥ½å¤Ł": 1484,
      "ç½Ĺ": 1485,
      "é»ŀ": 1486,
      "æĸĩåĮĸ": 1487,
      "åį°": 1488,
      "æĽ´å¤ļ": 1489,
      "±ä¹Ĳ": 1490,
      "æĭĽ": 1491,
      "ç´§": 1492,
      "âĢĿãĢĤ": 1493,
      "å°½": 1494,
      "æľĭ": 1495,
      "ç»ľ": 1496,
      "åĲ¸": 1497,
      "é¤Ĳ": 1498,
      "ä¸Ģå®ļ": 1499,
      "å®£": 1500,
      "èĪª": 1501,
      "ä»ĺ": 1502,
      "å¦Ĥä½ķ": 1503,
      "è®°èĢħ": 1504,
      "åŁİå¸Ĥ": 1505,
      "çĳ": 1506,
      "è®²": 1507,
      "éķ·": 1508,
      "å¦Ī": 1509,
      "çĶ»": 1510,
      "çĶ¨æĪ·": 1511,
      "æľ¨": 1512,
      "åħ«": 1513,
      "æī¹": 1514,
      "ç´¢": 1515,
      "13": 1516,
      "èĸ": 1517,
      "å³": 1518,
      "ä¸įè¦ģ": 1519,
      "äºĨè§£": 1520,
      "æĽ¾": 1521,
      "æ²Ĵ": 1522,
      "com": 1523,
      "æĭ¿": 1524,
      "èī¯": 1525,
      "âĢĶâĢĶ": 1526,
      "åĪ»": 1527,
      "çĻ»": 1528,
      "ç©¿": 1529,
      "en": 1530,
      "åį«": 1531,
      "çķ¶": 1532,
      "22": 1533,
      "å²ģ": 1534,
      "çĽŁ": 1535,
      "éĿ©": 1536,
      "å¤®": 1537,
      "åĿĢ": 1538,
      "æľĭåıĭ": 1539,
      "æĭ¬": 1540,
      "åİ¿": 1541,
      "èµ·æĿ¥": 1542,
      "ç£": 1543,
      "æĹı": 1544,
      "æ²Ļ": 1545,
      "çĸ«": 1546,
      "æĶ¯æĮģ": 1547,
      "åĬŁèĥ½": 1548,
      "æľīéĻĲ": 1549,
      "èĦ¸": 1550,
      "åĪļ": 1551,
      "ä¼¼": 1552,
      "çĶ³": 1553,
      "ç¶²": 1554,
      "ä»·æł¼": 1555,
      "éĹ»": 1556,
      "21": 1557,
      "åĽ¾çīĩ": 1558,
      "èĴ": 1559,
      "æŀĲ": 1560,
      "ä¹Ŀ": 1561,
      "å·¨": 1562,
      "ä¸ªäºº": 1563,
      "ar": 1564,
      "å¤§åŃ¦": 1565,
      "æ¤": 1566,
      "åıĳçİ°": 1567,
      "?âĢĿ": 1568,
      "ç§ģ": 1569,
      "åªĴ": 1570,
      "ç½ĳç»ľ": 1571,
      "çĭ¬": 1572,
      "è¡¥": 1573,
      "ç§»": 1574,
      "çĽĺ": 1575,
      "æıĲé«ĺ": 1576,
      "ç»Ħç»ĩ": 1577,
      "æ¯Ľ": 1578,
      "åĸľæ¬¢": 1579,
      "ä»ĸçļĦ": 1580,
      "å°ĩ": 1581,
      "åıĳå¸ĥ": 1582,
      "ç»§": 1583,
      "åħ¶ä¸Ń": 1584,
      "16": 1585,
      "çĽ´æİ¥": 1586,
      "è®Ń": 1587,
      "éĹľ": 1588,
      "or": 1589,
      "èĭ¥": 1590,
      "!âĢĿ": 1591,
      "50": 1592,
      "åº§": 1593,
      "è¿ĺæľī": 1594,
      "åī§": 1595,
      "èįī": 1596,
      "å¨±ä¹Ĳ": 1597,
      "å¯Ł": 1598,
      "åĮħæĭ¬": 1599,
      "é¼": 1600,
      "éģĩ": 1601,
      "ä»¤": 1602,
      "æĭħ": 1603,
      "ä»Ĭå¹´": 1604,
      "éĤ£ä¹Ī": 1605,
      "åĩºçİ°": 1606,
      "å·¥ç¨ĭ": 1607,
      "èĵ": 1608,
      "çĶ¢": 1609,
      "åĨ·": 1610,
      "ä½łçļĦ": 1611,
      "é¢Ŀ": 1612,
      "æľĢæĸ°": 1613,
      "è¿Ļä¸Ģ": 1614,
      "çīĽ": 1615,
      "åĹ": 1616,
      "åł´": 1617,
      "æ´Ĺ": 1618,
      "æĿ¥çļĦ": 1619,
      "çľĭåĪ°": 1620,
      "è¶£": 1621,
      "17": 1622,
      "èµĦæºĲ": 1623,
      "åķªåķª": 1624,
      "è¿°": 1625,
      "åħįè´¹": 1626,
      "åħ§": 1627,
      "çİ¯å¢ĥ": 1628,
      "ç¹": 1629,
      "éŁ©": 1630,
      "éĵģ": 1631,
      "å®ŀçİ°": 1632,
      "ç»Ŀ": 1633,
      "ç¸": 1634,
      "å¦»": 1635,
      "å®ĮæĪĲ": 1636,
      "æł¹æį®": 1637,
      "è¿Ļç§į": 1638,
      "ä¸įä¼ļ": 1639,
      "æŃ£åľ¨": 1640,
      "2018": 1641,
      "åºı": 1642,
      "ä»į": 1643,
      "éĢı": 1644,
      "åĲ«": 1645,
      "èĥĮ": 1646,
      "ä¸Ģèµ·": 1647,
      "å®¡": 1648,
      "æ¹ĸ": 1649,
      "è´¨éĩı": 1650,
      "åħ¨åĽ½": 1651,
      "é¢ľ": 1652,
      "äº¤æĺĵ": 1653,
      "åįĸ": 1654,
      "æĸ¹æ³ķ": 1655,
      "ä¼¤": 1656,
      "å°ıè¯´": 1657,
      "å¨ģ": 1658,
      "ç¬¬äºĮ": 1659,
      "çĨŁ": 1660,
      "çļĦæĹ¶åĢĻ": 1661,
      "æĶ¿çŃĸ": 1662,
      "et": 1663,
      "è¨Ń": 1664,
      "çį": 1665,
      "ä¸ĢæŃ¥": 1666,
      "es": 1667,
      "å®¢æĪ·": 1668,
      "è¿ĩç¨ĭ": 1669,
      "åģ¥åº·": 1670,
      "æ¼«": 1671,
      "éĽ·": 1672,
      "åºĬ": 1673,
      "è®¡åĪĴ": 1674,
      "æĶ»": 1675,
      "è¿İ": 1676,
      "å©ļ": 1677,
      "ä¹ĭåĲİ": 1678,
      "éļľ": 1679,
      "ç»į": 1680,
      "14": 1681,
      "è®¤ä¸º": 1682,
      "2019": 1683,
      "é½": 1684,
      "ä¸ĥ": 1685,
      "å¸ĮæľĽ": 1686,
      "åħ·æľī": 1687,
      "èĭı": 1688,
      "äº§ä¸ļ": 1689,
      "ä¸°": 1690,
      "åħ°": 1691,
      "èĢĮä¸Ķ": 1692,
      "ä½Ļ": 1693,
      "100": 1694,
      "èĻ½": 1695,
      "è½®": 1696,
      "æĢ¥": 1697,
      "av": 1698,
      "é¡»": 1699,
      "ä»£è¡¨": 1700,
      "èıľ": 1701,
      "åĨł": 1702,
      "æĪĸèĢħ": 1703,
      "è¯±": 1704,
      "ä¸ĢèĪ¬": 1705,
      "ä¸ĢçĽ´": 1706,
      "æī§": 1707,
      "æ¯Ķè¾ĥ": 1708,
      "åĪĽæĸ°": 1709,
      "ç³»åĪĹ": 1710,
      "è³ĩ": 1711,
      "è¯ī": 1712,
      "ç¨³": 1713,
      "çŃĶ": 1714,
      "çĶļ": 1715,
      "åİĤ": 1716,
      "æľºæŀĦ": 1717,
      "åĽłæŃ¤": 1718,
      "æ¶Īè´¹": 1719,
      "éľĢæ±Ĥ": 1720,
      "è¾Ĩ": 1721,
      "åıĳçĶŁ": 1722,
      "è®¯": 1723,
      "36": 1724,
      "åģ·": 1725,
      "éħĴåºĹ": 1726,
      "æĦ¿": 1727,
      "ç¨®": 1728,
      "åħ¨çĲĥ": 1729,
      "å·¦": 1730,
      "å¸ģ": 1731,
      "ä»»ä½ķ": 1732,
      "è¿Ļæĺ¯": 1733,
      "æłĩåĩĨ": 1734,
      "ä¸įæĸŃ": 1735,
      "ä¸ºäºĨ": 1736,
      "åĪĨæŀĲ": 1737,
      "çĪ¶": 1738,
      "ä¹İ": 1739,
      "æıĲåįĩ": 1740,
      "å°¼": 1741,
      "è·ĳ": 1742,
      "ç¨İ": 1743,
      "åŁºæľ¬": 1744,
      "è»Ĭ": 1745,
      "åįĪ": 1746,
      "åįł": 1747,
      "),": 1748,
      "å¹´çļĦ": 1749,
      "å¸Ń": 1750,
      "ç«ŀ": 1751,
      "éĿł": 1752,
      "éĻĪ": 1753,
      "æľīéĻĲåħ¬åı¸": 1754,
      "çº³": 1755,
      "éĽĨåĽ¢": 1756,
      "åľ°æĸ¹": 1757,
      "åºŃ": 1758,
      "å¤ı": 1759,
      "å¼Ĥ": 1760,
      "ä¸´": 1761,
      "æ¯Ĵ": 1762,
      "åŃ¦æł¡": 1763,
      "è®¾å¤ĩ": 1764,
      "è®ĵ": 1765,
      "æĿ¾": 1766,
      "ä»ĭç»į": 1767,
      "æĤ£": 1768,
      "ä¹±": 1769,
      "ç»¼": 1770,
      "éªļ": 1771,
      "çĸĳ": 1772,
      "çŀ": 1773,
      "25": 1774,
      "åı³": 1775,
      "æ³¨æĦı": 1776,
      "åºĶè¯¥": 1777,
      "è¿½": 1778,
      "åĪĺ": 1779,
      "èģļ": 1780,
      "ä¸Ĭæµ·": 1781,
      "ç¼º": 1782,
      "åħµ": 1783,
      "ä¹¡": 1784,
      "24": 1785,
      "çĴ": 1786,
      "å®Ī": 1787,
      "ä¸½": 1788,
      "www": 1789,
      "æħ¢": 1790,
      "æŁĵ": 1791,
      "èİ·å¾Ĺ": 1792,
      "åħ¸": 1793,
      "è§£åĨ³": 1794,
      "æ¥¼": 1795,
      "èľ": 1796,
      "ä¼ĳ": 1797,
      "æİ¢": 1798,
      "å¼Ģå±ķ": 1799,
      "åĿĲ": 1800,
      "æ°¸": 1801,
      "ç»ĥ": 1802,
      "åĿĹ": 1803,
      "éĥ¨éĹ¨": 1804,
      "éłŃ": 1805,
      "åĲĦç§į": 1806,
      "éĩİ": 1807,
      "èĦĳ": 1808,
      "å¢ŀéķ¿": 1809,
      "åĭĻ": 1810,
      "æĸĹ": 1811,
      "è¿Ľåħ¥": 1812,
      "ä¸Ńå¤®": 1813,
      "å¾ŀ": 1814,
      "80": 1815,
      "çģµ": 1816,
      "æĩī": 1817,
      "çļĦå¤§": 1818,
      "çĭĹ": 1819,
      "éĽ¶": 1820,
      "ä½³": 1821,
      "ä¸Ģæ¬¡": 1822,
      "éĵ¾": 1823,
      "è¾ĵ": 1824,
      "åłĤ": 1825,
      "ä¸įè¿ĩ": 1826,
      "åįĢ": 1827,
      "æµª": 1828,
      "ä¿ĥ": 1829,
      "æĻºèĥ½": 1830,
      "ä¸ļåĬ¡": 1831,
      "å¤ĦçĲĨ": 1832,
      "é¡µ": 1833,
      "å¢ŀåĬł": 1834,
      "æ´¾": 1835,
      "çĶ±äºİ": 1836,
      "ä¸Ģä¸ĭ": 1837,
      "23": 1838,
      "éĮ": 1839,
      "æŀ¶": 1840,
      "çĽ´æĴŃ": 1841,
      "åºĵ": 1842,
      "åŃĺåľ¨": 1843,
      "ht": 1844,
      "ä½ľçĶ¨": 1845,
      "åħ³ç³»": 1846,
      "æ¨£": 1847,
      "æķĳ": 1848,
      "åºĶçĶ¨": 1849,
      "å«©": 1850,
      "è´£ä»»": 1851,
      "è¡Ĺ": 1852,
      "é±": 1853,
      "ç¡Ģ": 1854,
      "çŃ¾": 1855,
      "éĶ®": 1856,
      "åħ©": 1857,
      "åĵĪ": 1858,
      "æĮĳ": 1859,
      "åĢŁ": 1860,
      "åŁºç¡Ģ": 1861,
      "èĮ¶": 1862,
      "pp": 1863,
      "æ¢¦": 1864,
      "ç«Ł": 1865,
      "ç»¿": 1866,
      "æ·«": 1867,
      "è°Ī": 1868,
      "al": 1869,
      "èĹı": 1870,
      "æŃĮ": 1871,
      "ç§Ł": 1872,
      "è½¯ä»¶": 1873,
      "æįŁ": 1874,
      "éķĩ": 1875,
      "é¦Ĩ": 1876,
      "åĨ²": 1877,
      "ä¹Łä¸į": 1878,
      "ãĢĤãĢĤ": 1879,
      "åıªæľī": 1880,
      "é¦Ļæ¸¯": 1881,
      "è°¢": 1882,
      "èĽĭ": 1883,
      "ç²¾ç¥ŀ": 1884,
      "æĪĳåĢĳ": 1885,
      "è¸": 1886,
      "ä»Ĭå¤©": 1887,
      "ä¸¤ä¸ª": 1888,
      "æ¾³": 1889,
      "éĩĳèŀį": 1890,
      "æľĿ": 1891,
      "éĴŁ": 1892,
      "at": 1893,
      "èĻ½çĦ¶": 1894,
      "ä»¥ä¸Ĭ": 1895,
      "é±¼": 1896,
      "éĺħ": 1897,
      "å¾ģ": 1898,
      "åĢĴ": 1899,
      "æ½®": 1900,
      "æ°£": 1901,
      "éĽ¨": 1902,
      "åĽ°": 1903,
      "é¡¾": 1904,
      "æĸ°éĹ»": 1905,
      "å®ģ": 1906,
      "è®¿": 1907,
      "çļĦå°ı": 1908,
      "éĵ¶è¡Į": 1909,
      "åħ³äºİ": 1910,
      "èĪŀ": 1911,
      "åľ°åĮº": 1912,
      "éĽª": 1913,
      "è¯¢": 1914,
      "å¹ķ": 1915,
      "åĲ¯": 1916,
      "ç¦ģ": 1917,
      "è¦ĸ": 1918,
      "çļĩ": 1919,
      "ç«¥": 1920,
      "ä¼¦": 1921,
      "æľĢåĲİ": 1922,
      "æĬĵ": 1923,
      "2017": 1924,
      "ä¸Ģæł·": 1925,
      "ç»§ç»Ń": 1926,
      "æĬ½": 1927,
      "æĬĹ": 1928,
      "æİ§åĪ¶": 1929,
      "åĩºäºĨ": 1930,
      "æĪĲåĬŁ": 1931,
      "ä½ĵèĤ²": 1932,
      "çī¹åĪ«": 1933,
      "æ±ĩ": 1934,
      "æĸ°çļĦ": 1935,
      "éŃĶ": 1936,
      "æĿĲæĸĻ": 1937,
      "åĮ»éĻ¢": 1938,
      "æīĺ": 1939,
      "åĽ½åĨħ": 1940,
      "è¿Ŀ": 1941,
      "åħ¨éĿ¢": 1942,
      "å¼Ģåıĳ": 1943,
      "åįķä½į": 1944,
      "le": 1945,
      "é¸¡": 1946,
      "æĳĦ": 1947,
      "éº¼": 1948,
      "åıªæĺ¯": 1949,
      "st": 1950,
      "çĶļèĩ³": 1951,
      "çļĦäºĭ": 1952,
      "æĲŃ": 1953,
      "èĥľ": 1954,
      "èĦ±": 1955,
      "æĥĳ": 1956,
      "èĢģå¸Ī": 1957,
      "å¥¥": 1958,
      "æ±ī": 1959,
      "è´µ": 1960,
      "é¬": 1961,
      "åĽº": 1962,
      "æĢķ": 1963,
      "ä¼´": 1964,
      "æĿĢ": 1965,
      "æķĪæŀľ": 1966,
      "å¹ħ": 1967,
      "æľīä¸Ģ": 1968,
      "æķ¸": 1969,
      "éĢĲ": 1970,
      "æĭ¥": 1971,
      "éģ¿": 1972,
      "åĵ¡": 1973,
      "å»¶": 1974,
      "ç¡¬": 1975,
      "è¨Ī": 1976,
      "äº¿åħĥ": 1977,
      "æĥł": 1978,
      "æĺ¯åĲ¦": 1979,
      "é¢ĨåŁŁ": 1980,
      "æłĳ": 1981,
      "å¿ħé¡»": 1982,
      "èĩªçĦ¶": 1983,
      "éĴĪ": 1984,
      "2020": 1985,
      "æĴŃæĶ¾": 1986,
      "è¿ĻéĩĮ": 1987,
      "æħ°": 1988,
      "èĶ": 1989,
      "ãĢĤâĢľ": 1990,
      "çĦ¶åĲİ": 1991,
      "éĴ¢": 1992,
      "ç»ĵæŀľ": 1993,
      "æİĪ": 1994,
      "%,": 1995,
      "åĪ¤": 1996,
      "æ¶ī": 1997,
      "è¿·": 1998,
      "æ°´å¹³": 1999,
      "æİª": 2000,
      "å°ļ": 2001,
      "çĶ°": 2002,
      "ç·ļ": 2003,
      "çĹĽ": 2004,
      "æĶ¹éĿ©": 2005,
      "é¢Ĩå¯¼": 2006,
      "è´Łè´£": 2007,
      "ç»¼åĲĪ": 2008,
      "æĺ¾ç¤º": 2009,
      "40": 2010,
      "é¡º": 2011,
      "åħ³æ³¨": 2012,
      "éĶĢåĶ®": 2013,
      "å¸®åĬ©": 2014,
      "è£¡": 2015,
      "å¹¸": 2016,
      "æİī": 2017,
      "æļ´": 2018,
      "åĨĮ": 2019,
      "æ¶¨": 2020,
      "åĨ°": 2021,
      "çĪ¸": 2022,
      "æĸĩç«ł": 2023,
      "æ¨¡å¼ı": 2024,
      "ç®±": 2025,
      "åį±": 2026,
      "æ¶²": 2027,
      "æĽ´åĬł": 2028,
      "éĻĦ": 2029,
      "åİŁåĽł": 2030,
      "éĻĨ": 2031,
      "æĿ¥è¯´": 2032,
      "é¹": 2033,
      "åĪ©çĶ¨": 2034,
      "it": 2035,
      "å°ģ": 2036,
      "åĲī": 2037,
      "ä¼Ĭ": 2038,
      "éĸĢ": 2039,
      "ç§ĳåŃ¦": 2040,
      "ç¤¼": 2041,
      "æķ£": 2042,
      "æĲľ": 2043,
      "èĻİ": 2044,
      "åĪº": 2045,
      "åºĨ": 2046,
      "æĵįä½ľ": 2047,
      "æĸ¹æ¡Ī": 2048,
      "çŃĳ": 2049,
      "åªĴä½ĵ": 2050,
      "ä¼Ļ": 2051,
      "ä¹ĭåīį": 2052,
      "åİĨåı²": 2053,
      "åŁºéĩĳ": 2054,
      "çŁ¥è¯Ĩ": 2055,
      "éľĩ": 2056,
      "ç¬¬ä¸ī": 2057,
      "88": 2058,
      "èģĶç½ĳ": 2059,
      "am": 2060,
      "èĭ¦": 2061,
      "è°ģ": 2062,
      "ä¼ļè®®": 2063,
      "ç©´": 2064,
      "äºļæ´²": 2065,
      "éģ¸": 2066,
      "å³°": 2067,
      "çľŁçļĦ": 2068,
      "å»ºç«ĭ": 2069,
      "æľīæķĪ": 2070,
      "ç§ĺ": 2071,
      "åĩĢ": 2072,
      "æĹħæ¸¸": 2073,
      "000": 2074,
      "å®¹æĺĵ": 2075,
      "æ§": 2076,
      "éĬ": 2077,
      "ç¯ĩ": 2078,
      "å®Įåħ¨": 2079,
      "å¼Ł": 2080,
      "ç¾İåħĥ": 2081,
      "ç»©": 2082,
      "å´": 2083,
      "ä¿ĿæĬ¤": 2084,
      "åĬ³": 2085,
      "çĤ®": 2086,
      "é¡¶": 2087,
      "çĶµåŃĲ": 2088,
      "åķı": 2089,
      "çº¯": 2090,
      "çĥĪ": 2091,
      "å·Ŀ": 2092,
      "æ¯ķ": 2093,
      "å¼·": 2094,
      "èµĦéĩĳ": 2095,
      "å±ĭ": 2096,
      "çĿ£": 2097,
      "åı¶": 2098,
      "åı¥": 2099,
      "åĩºæĿ¥": 2100,
      "çĽ®æłĩ": 2101,
      "è¯¦": 2102,
      "åķĨåĵģ": 2103,
      "åİħ": 2104,
      "è®¢": 2105,
      "æĪĲäºº": 2106,
      "äº¤éĢļ": 2107,
      "å¸«": 2108,
      "éĿĻ": 2109,
      "çİī": 2110,
      "çĶµè¯Ŀ": 2111,
      "åĬłå¼º": 2112,
      "ç»ıèĲ¥": 2113,
      "çİ°åľº": 2114,
      "ç§¯æŀģ": 2115,
      "çĭĤ": 2116,
      "èģĶç³»": 2117,
      "ed": 2118,
      "ä¹ĭä¸Ģ": 2119,
      "ç¬Ķ": 2120,
      "åĪ¸": 2121,
      "é¢¨": 2122,
      "è¿Ľä¸ĢæŃ¥": 2123,
      "60": 2124,
      "ä¸¦": 2125,
      "æĮ¥": 2126,
      "ç¿»": 2127,
      "ä½ľåĵģ": 2128,
      "æ¹¾": 2129,
      "æľªæĿ¥": 2130,
      "è´·": 2131,
      "æľīäºĽ": 2132,
      "èĦļ": 2133,
      "ä¸įä»ħ": 2134,
      "æ´ĭ": 2135,
      "!!": 2136,
      "è¯į": 2137,
      "è·³": 2138,
      "ä½ĵéªĮ": 2139,
      "å®¶åºŃ": 2140,
      "å®ŀéĻħ": 2141,
      "å²Ľ": 2142,
      "éĺ´": 2143,
      "æ¼Ĥ": 2144,
      "æķħäºĭ": 2145,
      "è§īå¾Ĺ": 2146,
      "åľĪ": 2147,
      "99": 2148,
      "èħ¿": 2149,
      "è¾¾åĪ°": 2150,
      "æĦĽ": 2151,
      "æĽ²": 2152,
      "æİĮ": 2153,
      "ä¹ĭéĹ´": 2154,
      "è§Ħå®ļ": 2155,
      "éĻ¤äºĨ": 2156,
      "è´´": 2157,
      "æľīåħ³": 2158,
      "åħ¶å®ŀ": 2159,
      "æĬ¥åĳĬ": 2160,
      "çµĲ": 2161,
      "çĬ¯": 2162,
      "éĢłæĪĲ": 2163,
      "å®ĺç½ĳ": 2164,
      "æĿ¨": 2165,
      "æĮģç»Ń": 2166,
      "çĽĽ": 2167,
      "åĳ¼": 2168,
      "æĹ¶ä»£": 2169,
      "èįĲ": 2170,
      "æ¤į": 2171,
      "å½¢æĪĲ": 2172,
      "æĿ¥æºĲ": 2173,
      "åĬª": 2174,
      "01": 2175,
      "æ··": 2176,
      "èĻķ": 2177,
      "ic": 2178,
      "å®ľ": 2179,
      "æĥĬ": 2180,
      "çĹĩ": 2181,
      "åĪ¶åº¦": 2182,
      "çĽĸ": 2183,
      "å¾ĹåĪ°": 2184,
      "æ¦Ĥ": 2185,
      "éº»": 2186,
      "æĢ§æĦŁ": 2187,
      "éĽĦ": 2188,
      "äºĪ": 2189,
      "éĺ¶": 2190,
      "ç´¯": 2191,
      "å¦¹åŃĲ": 2192,
      "é£İéĻ©": 2193,
      "ä¿Ŀéļľ": 2194,
      "æ±ł": 2195,
      "å±Ĭ": 2196,
      "ou": 2197,
      "è¬": 2198,
      "å¼¹": 2199,
      "28": 2200,
      "æĿ¯": 2201,
      "åħĴ": 2202,
      "çĿ¡": 2203,
      "Ġ(": 2204,
      "å®ĺæĸ¹": 2205,
      "el": 2206,
      "è¿Ļä¹Ī": 2207,
      "åĸ®": 2208,
      "ä¿ĿæĮģ": 2209,
      "åħ³éĶ®": 2210,
      "çļĦè¯Ŀ": 2211,
      "å½Ĵ": 2212,
      "ĠS": 2213,
      "éĩįçĤ¹": 2214,
      "é«ĺæ¸ħ": 2215,
      "è§Ĥçľĭ": 2216,
      "ç¬¦": 2217,
      "è¡Įä¸º": 2218,
      "æ±¡": 2219,
      "å»ºè®®": 2220,
      "å¦ĤæŃ¤": 2221,
      "æĳ©": 2222,
      "æĹ¢": 2223,
      "åŃ¦éĻ¢": 2224,
      "çĸ«æĥħ": 2225,
      "ç©ºéĹ´": 2226,
      "åĩºçļĦ": 2227,
      "çĺ": 2228,
      "è·Ŀ": 2229,
      "éļıçĿĢ": 2230,
      "å¥³äºº": 2231,
      "éĺħè¯»": 2232,
      "æīįèĥ½": 2233,
      "æĦŁè§ī": 2234,
      "éĽħ": 2235,
      "éħ¸": 2236,
      "æĹłæ³ķ": 2237,
      "ä¸ĩåħĥ": 2238,
      "é¡Į": 2239,
      "çµ¦": 2240,
      "è®Ĭ": 2241,
      "è±ª": 2242,
      "çĶ²": 2243,
      "2016": 2244,
      "åŁ¹è®Ń": 2245,
      "æĺ¯åľ¨": 2246,
      "å·§": 2247,
      "åıĤåĬł": 2248,
      "æİ¨èįĲ": 2249,
      "åĪ¶éĢł": 2250,
      "å¿«éĢŁ": 2251,
      "åĸĿ": 2252,
      "ä¹¦è®°": 2253,
      "å°¤": 2254,
      "åįģåĪĨ": 2255,
      "26": 2256,
      "èīºæľ¯": 2257,
      "æĿŁ": 2258,
      "ä¿ĿéĻ©": 2259,
      "æı¡": 2260,
      "åĬłçĽŁ": 2261,
      "æ³°": 2262,
      "27": 2263,
      "å©Ĩ": 2264,
      "åĬªåĬĽ": 2265,
      "æľīçļĦ": 2266,
      "è²»": 2267,
      "è©±": 2268,
      "åħ±åĲĮ": 2269,
      "é²ľ": 2270,
      "èĥ½æºĲ": 2271,
      "å¤ļå°ĳ": 2272,
      "æĬ¥éģĵ": 2273,
      "åĥ¹": 2274,
      "ĠA": 2275,
      "æĢĢ": 2276,
      "æ²ī": 2277,
      "Ġ-": 2278,
      "æ²»çĸĹ": 2279,
      "å¯¼èĩ´": 2280,
      "éģĭ": 2281,
      "æİ¨è¿Ľ": 2282,
      "æ²Ĵæľī": 2283,
      "éĩĩçĶ¨": 2284,
      "æ¶Īæģ¯": 2285,
      "åľĸ": 2286,
      "æ¥ļ": 2287,
      "å°Ī": 2288,
      "ä½ľèĢħ": 2289,
      "è´¸": 2290,
      "èĤ¯": 2291,
      "æĪĳåĽ½": 2292,
      "æİ¥åıĹ": 2293,
      "ä¼°": 2294,
      "æĥ³è¦ģ": 2295,
      "æī©": 2296,
      "åĤ¨": 2297,
      "éļĶ": 2298,
      "æ¯ĶèµĽ": 2299,
      "å®ŀæĸ½": 2300,
      "æ¶¦": 2301,
      "æĬĺ": 2302,
      "ä¹Łæľī": 2303,
      "è³ª": 2304,
      "ä»·åĢ¼": 2305,
      "éĨĴ": 2306,
      "æĢ§çļĦ": 2307,
      "èĲ¬": 2308,
      "åł±": 2309,
      "ä¸įå¾Ĺ": 2310,
      "å¸Ŀ": 2311,
      "æĶ¿æ²»": 2312,
      "ä»Ļ": 2313,
      "åŃķ": 2314,
      "%ãĢĤ": 2315,
      "å»ºçŃĳ": 2316,
      "æĮīçħ§": 2317,
      "åĪ¥": 2318,
      "ro": 2319,
      "èĤ¤": 2320,
      "è¦ĭ": 2321,
      "èĩªæħ°": 2322,
      "å¹²éĥ¨": 2323,
      "è¯±æĥĳ": 2324,
      "ç§ĭ": 2325,
      "æĿ¡ä»¶": 2326,
      "ri": 2327,
      "éķľ": 2328,
      "é¥®": 2329,
      "èĤ¥": 2330,
      "è¿ĲåĬ¨": 2331,
      "ä¸įéĶĻ": 2332,
      "æĿĤ": 2333,
      "æ³¨åĨĮ": 2334,
      "éª¨": 2335,
      "ç½ª": 2336,
      "çīĻ": 2337,
      "åĢį": 2338,
      "é½Ĳ": 2339,
      "çº¸": 2340,
      "åıĹåĪ°": 2341,
      "è·Į": 2342,
      "ĠC": 2343,
      "è®¨": 2344,
      "äº§çĶŁ": 2345,
      "è®¸å¤ļ": 2346,
      "è¡ĵ": 2347,
      "èĻĳ": 2348,
      "èģĬ": 2349,
      "æ¿Ģæĥħ": 2350,
      "ä»»åĬ¡": 2351,
      "çİ©å®¶": 2352,
      "è¶ħè¿ĩ": 2353,
      "è´Ńä¹°": 2354,
      "èį£": 2355,
      "Ġ,": 2356,
      "æļĹ": 2357,
      "æ¬²": 2358,
      "æ´ģ": 2359,
      "æ»ĳ": 2360,
      "ä¸ľè¥¿": 2361,
      "æĿ¥èĩª": 2362,
      "å¨ĺ": 2363,
      "çµ±": 2364,
      "èķ": 2365,
      "çĸ¾": 2366,
      "åĿļæĮģ": 2367,
      "åıªè¦ģ": 2368,
      "èº«ä½ĵ": 2369,
      "æķĻåŃ¦": 2370,
      "æĹ§": 2371,
      "æ£Ĵ": 2372,
      "æ³ķå¾ĭ": 2373,
      "çĤİ": 2374,
      "ä»¥ä¸ĭ": 2375,
      "çĮĽ": 2376,
      "æĿ±": 2377,
      "å¹¼": 2378,
      "åİļ": 2379,
      "è¾ĳ": 2380,
      "æĢª": 2381,
      "äºĴèģĶç½ĳ": 2382,
      "åĨ¬": 2383,
      "app": 2384,
      "ä¸įå°ĳ": 2385,
      "çĶ³è¯·": 2386,
      "æİ¨åĬ¨": 2387,
      "é¥Ń": 2388,
      "æĪª": 2389,
      "éĺµ": 2390,
      "æĪĳä»¬çļĦ": 2391,
      "å®Ĺ": 2392,
      "ä¹ĺ": 2393,
      "èĩªæĭį": 2394,
      "ç®Ģåįķ": 2395,
      "ä¸ĢåĢĭ": 2396,
      "æľŁéĹ´": 2397,
      "å¸¶": 2398,
      "åĽ½äº§": 2399,
      "å¥¹çļĦ": 2400,
      "ä¸įåĪ°": 2401,
      "ä¸»æĴŃ": 2402,
      "ä¼łç»Ł": 2403,
      "èĢ³": 2404,
      "çī¹èī²": 2405,
      "æķĻå¸Ī": 2406,
      "æŀģåĵģ": 2407,
      "èµĦæĸĻ": 2408,
      "æ¼Ĥäº®": 2409,
      "æĭ¥æľī": 2410,
      "å°ĳå¦ĩ": 2411,
      "å¾®ä¿¡": 2412,
      "è°ĥæķ´": 2413,
      "æĲŀ": 2414,
      "é¥°": 2415,
      "ç½²": 2416,
      "éĥ½æľī": 2417,
      "å°İ": 2418,
      "åħĪçĶŁ": 2419,
      "èĻļ": 2420,
      "åĽ¢éĺŁ": 2421,
      "å®«": 2422,
      "è¡¨çİ°": 2423,
      "æĶ¶åħ¥": 2424,
      "å¡ŀ": 2425,
      "å·¦åı³": 2426,
      "èģĮä¸ļ": 2427,
      "ç»ĵæŀĦ": 2428,
      "å°ıæĹ¶": 2429,
      "èĵĿ": 2430,
      "åıĤä¸İ": 2431,
      "ä¿Ħ": 2432,
      "æ£ĢæŁ¥": 2433,
      "åĪĨäº«": 2434,
      "ä½Ľ": 2435,
      "éĢĶ": 2436,
      "æķ¢": 2437,
      "å§Ķåĳĺ": 2438,
      "ac": 2439,
      "æ£ĭ": 2440,
      "éļĲ": 2441,
      "èİ«": 2442,
      "ä¸įåı¯": 2443,
      "PP": 2444,
      "è£Ŀ": 2445,
      "åĿĽ": 2446,
      "é¢ľåĢ¼": 2447,
      "æİªæĸ½": 2448,
      "åĶ¯": 2449,
      "æľĹ": 2450,
      "éŀ": 2451,
      "æ£®": 2452,
      "åĨ³å®ļ": 2453,
      "å¯»": 2454,
      "è´¦": 2455,
      "90": 2456,
      "æ´¥": 2457,
      "è¯¯": 2458,
      "çĳŀ": 2459,
      "éĤ®": 2460,
      "ç¨ĭåºı": 2461,
      "æĪĲæľ¬": 2462,
      "ä»¥æĿ¥": 2463,
      "ä½ĵç³»": 2464,
      "æł¸å¿ĥ": 2465,
      "æ¸Ĳ": 2466,
      "è¿ª": 2467,
      "åĤ³": 2468,
      "éģŃ": 2469,
      "é©¾": 2470,
      "èº«æĿĲ": 2471,
      "ç¸½": 2472,
      "æģĲ": 2473,
      "éĤ£äºĽ": 2474,
      "åīµ": 2475,
      "æĽ´æĸ°": 2476,
      "çº·": 2477,
      "åĩĨå¤ĩ": 2478,
      "æľ«": 2479,
      "èĪĴ": 2480,
      "çľŁæŃ£": 2481,
      "åĬ±": 2482,
      "æģ¶": 2483,
      ")ãĢĤ": 2484,
      "åĮ»çĸĹ": 2485,
      "äº¤æµģ": 2486,
      "å°Ĭ": 2487,
      "æ¨Ĥ": 2488,
      "è°ĥæŁ¥": 2489,
      "åģļå¥½": 2490,
      "æĹĹ": 2491,
      "äººæīį": 2492,
      "æĪ°": 2493,
      "ç»ıéªĮ": 2494,
      "è§¦": 2495,
      "åĿı": 2496,
      "èĪ¹": 2497,
      "è¿ħ": 2498,
      "åħ¨éĥ¨": 2499,
      "èĳ£": 2500,
      "èĭĹ": 2501,
      "è´«": 2502,
      "åĦª": 2503,
      "çĪ½": 2504,
      "æļĸ": 2505,
      "èĺ": 2506,
      "å¸¦æĿ¥": 2507,
      "åĪĨéĴŁ": 2508,
      "æģ©": 2509,
      "ä¸ĵå®¶": 2510,
      "åĺ´": 2511,
      "æŃ£å¼ı": 2512,
      "ä¼ĺåĬ¿": 2513,
      "äººä»¬": 2514,
      "çĮ®": 2515,
      "è¯º": 2516,
      "èªį": 2517,
      "55": 2518,
      "çļĦæĸ°": 2519,
      "ç»ĵåĲĪ": 2520,
      "åĤĻ": 2521,
      "çļĦéĹ®é¢ĺ": 2522,
      "70": 2523,
      "éĩĬ": 2524,
      "29": 2525,
      "ç°": 2526,
      "è¿ĩåİ»": 2527,
      "ä¿Ŀè¯ģ": 2528,
      "ç³ĸ": 2529,
      "èĮĥåĽ´": 2530,
      "è§Ī": 2531,
      "å±ı": 2532,
      "ç»ıè¿ĩ": 2533,
      "åĪ·": 2534,
      "é£Łåĵģ": 2535,
      "è±Ĩ": 2536,
      "åľ°åĿĢ": 2537,
      "çģ¯": 2538,
      "å¿Ļ": 2539,
      "åĩ¡": 2540,
      "åħ·ä½ĵ": 2541,
      "åģı": 2542,
      "èģ²": 2543,
      "å¹¶ä¸Ķ": 2544,
      "æĤ£èĢħ": 2545,
      "çļĦé«ĺ": 2546,
      "åĪĢ": 2547,
      "çªĹ": 2548,
      "å¼±": 2549,
      "åĢº": 2550,
      "åıĸå¾Ĺ": 2551,
      "å½©ç¥¨": 2552,
      "æĳ¸": 2553,
      "çĶµè§Ĩ": 2554,
      "æ¯Ķå¦Ĥ": 2555,
      "çıł": 2556,
      "è§ĦåĪĴ": 2557,
      "æĮĤ": 2558,
      "ä¸Ĭå¸Ĥ": 2559,
      "ç¨³å®ļ": 2560,
      "æīĵéĢł": 2561,
      "èµ¢": 2562,
      "æĺ¯ä¸Ģä¸ª": 2563,
      "å°¾": 2564,
      "æ¡£": 2565,
      "he": 2566,
      "å¾Ĳ": 2567,
      "éĿ¢çļĦ": 2568,
      "ing": 2569,
      "ç¼ĵ": 2570,
      "è¶ĬæĿ¥": 2571,
      "é¼ĵ": 2572,
      "è£ģ": 2573,
      "åĲĽ": 2574,
      "å·¥ä¸ļ": 2575,
      "æĪĺçķ¥": 2576,
      "åĬĽéĩı": 2577,
      "è´¥": 2578,
      "æŃ£å¸¸": 2579,
      "åĬŀåħ¬": 2580,
      "ä¸ĭæĿ¥": 2581,
      "è¯ļ": 2582,
      "çķª": 2583,
      "å¹¶ä¸į": 2584,
      "ä¸ªæľĪ": 2585,
      "èĩªåĬ¨": 2586,
      "è¶ĬæĿ¥è¶Ĭ": 2587,
      "ä¸¥éĩį": 2588,
      "åıĺåĮĸ": 2589,
      "èª¿": 2590,
      "å®£ä¼ł": 2591,
      "èĥ¸": 2592,
      "å¡Ķ": 2593,
      "è¹": 2594,
      "çĨ±": 2595,
      "æ¢ħ": 2596,
      "å¹¾": 2597,
      "åĶĲ": 2598,
      "è§Ħæ¨¡": 2599,
      "æ¯ıå¤©": 2600,
      "å°º": 2601,
      "éŁ©åĽ½": 2602,
      "çĶ¨äºİ": 2603,
      "è¿Ļæł·çļĦ": 2604,
      ")ãĢģ": 2605,
      "ä»ª": 2606,
      "å¿ĺ": 2607,
      "æľºä¼ļ": 2608,
      "åıĬæĹ¶": 2609,
      "éĴĪå¯¹": 2610,
      "ç´ļ": 2611,
      "å®ĩ": 2612,
      "åı¬": 2613,
      "è¢ľ": 2614,
      "é»ĺ": 2615,
      "è©²": 2616,
      "re": 2617,
      "èĥ¡": 2618,
      "æª": 2619,
      "ä½įç½®": 2620,
      "çĶ·äºº": 2621,
      "åĴ¨": 2622,
      "æıĲåĩº": 2623,
      "æľīäºº": 2624,
      "è¨ĺ": 2625,
      "èĢĲ": 2626,
      "æ¶Īè´¹èĢħ": 2627,
      "çĥŁ": 2628,
      "åĳĬè¯ī": 2629,
      "äº¡": 2630,
      "2015": 2631,
      "è§Ģ": 2632,
      "ä¸»ä¹ī": 2633,
      "æĸ¹åĲĳ": 2634,
      "åĭĩ": 2635,
      "oo": 2636,
      "è½ī": 2637,
      "åħ¬åħ±": 2638,
      "åľ£": 2639,
      "ç½ĳåĿĢ": 2640,
      "æī§è¡Į": 2641,
      "æ´Ľ": 2642,
      "æĸĩä»¶": 2643,
      "å°±ä¼ļ": 2644,
      "ĠM": 2645,
      "å¼ĢæĶ¾": 2646,
      "èģĶåĲĪ": 2647,
      "å¹´è½»": 2648,
      "æĤī": 2649,
      "æı´": 2650,
      "æĻ®éĢļ": 2651,
      "çĶŁåĳ½": 2652,
      "åı°æ¹¾": 2653,
      "æĨ": 2654,
      "æħ§": 2655,
      "ä½łä»¬": 2656,
      "èĲ½å®ŀ": 2657,
      "è¿ĩç¨ĭä¸Ń": 2658,
      "35": 2659,
      "æĢĿæĥ³": 2660,
      "å½¢å¼ı": 2661,
      "æĽ¸": 2662,
      "æī¶": 2663,
      "ä¸ĭçļĦ": 2664,
      "çľĭçľĭ": 2665,
      "æĭŁ": 2666,
      "åı¦å¤ĸ": 2667,
      "éĢŁåº¦": 2668,
      "ĠP": 2669,
      "å¤ļçļĦ": 2670,
      "åı¯æĺ¯": 2671,
      "èµµ": 2672,
      "é¡ŀ": 2673,
      "å®¾": 2674,
      "ä¸»é¢ĺ": 2675,
      "----": 2676,
      "è¯Ĭ": 2677,
      "åıªèĥ½": 2678,
      "éģį": 2679,
      "åĪĽä¸ļ": 2680,
      "æĺł": 2681,
      "ä¸»ä»»": 2682,
      "ä¸ºä»Ģä¹Ī": 2683,
      "é«ĺçļĦ": 2684,
      "è¡ĮåĬ¨": 2685,
      "å®Įæķ´": 2686,
      "éĺ¶æ®µ": 2687,
      "æ¡¥": 2688,
      "æľįåĭĻ": 2689,
      "éªĳ": 2690,
      "æĬ±": 2691,
      "è´Ŀ": 2692,
      "è·¨": 2693,
      "è«ĭ": 2694,
      "åħ¼": 2695,
      "çľĭçĿĢ": 2696,
      "æŃ¤å¤ĸ": 2697,
      "éģĹ": 2698,
      "ä¾µ": 2699,
      "æ·±åħ¥": 2700,
      "çĽ®çļĦ": 2701,
      "åĵªäºĽ": 2702,
      "åĪĨåĪ«": 2703,
      "åľĺ": 2704,
      "ä¸įåĲĮçļĦ": 2705,
      "æķ´ä¸ª": 2706,
      "ä»¥åĲİ": 2707,
      "çĶľ": 2708,
      "æī£": 2709,
      "é¡¿": 2710,
      "åĩıå°ĳ": 2711,
      "ç£¨": 2712,
      "ä¸Ģç§į": 2713,
      "è£¸": 2714,
      "âĢĻ": 2715,
      "æ³¡": 2716,
      "é¬¼": 2717,
      "is": 2718,
      "éĢ£": 2719,
      "äºĭä»¶": 2720,
      "èģ¯": 2721,
      "il": 2722,
      "å½ĵçĦ¶": 2723,
      "èŃī": 2724,
      "è®¡ç®Ĺ": 2725,
      "ä¸įçŁ¥éģĵ": 2726,
      "å·¡": 2727,
      "æ·¡": 2728,
      "åİ»å¹´": 2729,
      "åħħåĪĨ": 2730,
      "ç½ĳåıĭ": 2731,
      "2021": 2732,
      "éĶĭ": 2733,
      "æľĢç»Ī": 2734,
      "èı²": 2735,
      "æĻĤéĸĵ": 2736,
      "æķ°åŃĹ": 2737,
      "æ³Ľ": 2738,
      "èį¡": 2739,
      "ä»ĸåĢĳ": 2740,
      "æĶ¯ä»ĺ": 2741,
      "as": 2742,
      "é©¶": 2743,
      "æ´ŀ": 2744,
      "åĪ¶ä½ľ": 2745,
      "éĩĮçļĦ": 2746,
      "äº¦": 2747,
      "ç¦ıåĪ©": 2748,
      "åį«çĶŁ": 2749,
      "ä¸ģ": 2750,
      "ç¼©": 2751,
      "è¾¦": 2752,
      "éģĶ": 2753,
      "æĪĲç«ĭ": 2754,
      "ç¤¾åĮº": 2755,
      "åĴ¨è¯¢": 2756,
      "æĮ¯": 2757,
      "æľĢè¿ĳ": 2758,
      "ä¸Ńåľĭ": 2759,
      "è¦º": 2760,
      "å®īæİĴ": 2761,
      "åľ³": 2762,
      "æ·»": 2763,
      "åĲ´": 2764,
      "èµĦäº§": 2765,
      "æĤ¨çļĦ": 2766,
      "èĢĥèĻĳ": 2767,
      "å¤§éĩı": 2768,
      "è¨±": 2769,
      "è¿Ķ": 2770,
      "å¼µ": 2771,
      "ãĢĭ,": 2772,
      "ä¸°å¯Į": 2773,
      "æĮº": 2774,
      "çĩŁ": 2775,
      "æ·±åľ³": 2776,
      "ç«ŀäºī": 2777,
      "æ¬¢è¿İ": 2778,
      "çĦ¦": 2779,
      "æĪ´": 2780,
      "æĮĩå¯¼": 2781,
      "ç¹ģ": 2782,
      "åŃĻ": 2783,
      "æĺİæĺ¾": 2784,
      "éģ¿åħį": 2785,
      "å½»": 2786,
      "ä¼Ł": 2787,
      "å·¥åħ·": 2788,
      "æŃ¤æ¬¡": 2789,
      "è¿ĲèĲ¥": 2790,
      "èĿ": 2791,
      "åĽłç´ł": 2792,
      "__": 2793,
      "çĮ«": 2794,
      "Ġ0": 2795,
      "çĩĥ": 2796,
      "æĪĲäºĨ": 2797,
      "è¦Ĩ": 2798,
      "ç¡®ä¿Ŀ": 2799,
      "æ¨Ļ": 2800,
      "åľĨ": 2801,
      "æĮĩåĩº": 2802,
      "æķı": 2803,
      "åĶ±": 2804,
      "è¦ı": 2805,
      "å¹´æĿ¥": 2806,
      "éĨ«": 2807,
      "æĩĤ": 2808,
      "æģĭ": 2809,
      "è°·": 2810,
      "åĮºåŁŁ": 2811,
      "éĥ½ä¼ļ": 2812,
      "éĤĬ": 2813,
      "ä¿ĥè¿Ľ": 2814,
      "å¼Ħ": 2815,
      "çļĦæĥħåĨµ": 2816,
      "æĵļ": 2817,
      "å¥³ç¥ŀ": 2818,
      "æ¡ĥ": 2819,
      "å±ŀäºİ": 2820,
      "çĶŁæĢģ": 2821,
      "èĴĻ": 2822,
      "åĺī": 2823,
      "âĸ": 2824,
      "çļĦéĩįè¦ģ": 2825,
      "çİ°ä»£": 2826,
      "æĪ¶": 2827,
      "æ¢°": 2828,
      "æī¾åĪ°": 2829,
      "çļĦå·¥ä½ľ": 2830,
      "è·µ": 2831,
      "å¥³æĢ§": 2832,
      "æľĢå¤§": 2833,
      "æ¯«": 2834,
      "çĥ§": 2835,
      "çĽ¸ä¿¡": 2836,
      "èī²çļĦ": 2837,
      "éłħ": 2838,
      "èı¯": 2839,
      "æī¬": 2840,
      "ç¨ĭåº¦": 2841,
      "åŃĲçļĦ": 2842,
      "å®½": 2843,
      "??": 2844,
      "å®ĮåĸĦ": 2845,
      "å°ĳå¥³": 2846,
      "å¡ĳ": 2847,
      "éĺ»": 2848,
      "åĮĸçļĦ": 2849,
      "åļ": 2850,
      "ç¢º": 2851,
      "åķĨä¸ļ": 2852,
      "æī«": 2853,
      "æľºåħ³": 2854,
      "åīĩ": 2855,
      "ç¥ĸ": 2856,
      "éĩįå¤§": 2857,
      "äººå£«": 2858,
      "èŃ°": 2859,
      "åĬĽçļĦ": 2860,
      "å¦Īå¦Ī": 2861,
      "ä¸ĢçĤ¹": 2862,
      "æ±º": 2863,
      "ä¸ĭéĻį": 2864,
      "çĪ·": 2865,
      "åį»": 2866,
      "éļĬ": 2867,
      "é¦ĸåħĪ": 2868,
      "äºĭæĥħ": 2869,
      "åĬ¨è½¦": 2870,
      "ä¾§": 2871,
      "åĳĪ": 2872,
      "éŃĤ": 2873,
      "å¯Ĵ": 2874,
      "çľŁå®ŀ": 2875,
      "èľľ": 2876,
      "365": 2877,
      "éĶģ": 2878,
      "è£¤": 2879,
      "éĻįä½İ": 2880,
      "çĦ¶èĢĮ": 2881,
      "è®ºåĿĽ": 2882,
      "å¿į": 2883,
      "èĤ¡ç¥¨": 2884,
      "æľºåĪ¶": 2885,
      "ch": 2886,
      "ç¡®å®ļ": 2887,
      "æ»¡è¶³": 2888,
      "æĹģ": 2889,
      "ä¸Ńæĸĩ": 2890,
      "çĬ¶æĢģ": 2891,
      "éĽ£": 2892,
      "è¼ĥ": 2893,
      "åīĳ": 2894,
      "è¶ĭ": 2895,
      "æ»¿": 2896,
      "45": 2897,
      "èµļ": 2898,
      "å°¤åħ¶": 2899,
      "çµĦ": 2900,
      "è¶³çĲĥ": 2901,
      "é²ģ": 2902,
      "Ġt": 2903,
      "åĬłåħ¥": 2904,
      "å®īè£ħ": 2905,
      "æģĴ": 2906,
      "åīĤ": 2907,
      "æĦıè§ģ": 2908,
      "èĩªèº«": 2909,
      "äºĭä¸ļ": 2910,
      "å®¿": 2911,
      "éĹŃ": 2912,
      "èµ¶": 2913,
      "åĸ·": 2914,
      "åĲİçļĦ": 2915,
      "å»£": 2916,
      "èµŀ": 2917,
      "æĬµ": 2918,
      "è¯Ĺ": 2919,
      "å°±åı¯ä»¥": 2920,
      "ol": 2921,
      "åŃĶ": 2922,
      "ç½ĳä¸Ĭ": 2923,
      "çħ§çīĩ": 2924,
      "è¯´æĺİ": 2925,
      "è«ĸ": 2926,
      "å¹¿åĳĬ": 2927,
      "æ½ľ": 2928,
      "å¥³åıĭ": 2929,
      "æ¾³éĹ¨": 2930,
      "ä¸¹": 2931,
      "æĻĵ": 2932,
      "æĸ¹ä¾¿": 2933,
      "æ®Ĭ": 2934,
      "ç§¦": 2935,
      "æ¢Ŀ": 2936,
      "éĥ½ä¸į": 2937,
      "åĨįæ¬¡": 2938,
      "æĦıè¯Ĩ": 2939,
      "çºĮ": 2940,
      "çĶ¨çļĦ": 2941,
      "ç¬¦åĲĪ": 2942,
      "èĤ¯å®ļ": 2943,
      "çĶŁçļĦ": 2944,
      "å¢Ļ": 2945,
      "ad": 2946,
      "å¥ĭ": 2947,
      "03": 2948,
      "èĩªçĶ±": 2949,
      "åİĭåĬĽ": 2950,
      "åĳĺå·¥": 2951,
      "02": 2952,
      "ç¾¤ä¼Ĺ": 2953,
      "èĢĹ": 2954,
      "å¦Ĥä»Ĭ": 2955,
      "èħĲ": 2956,
      "æĬ¢": 2957,
      "ä¸Ģå¹´": 2958,
      "åĲĮåŃ¦": 2959,
      "æĺ¨": 2960,
      "ag": 2961,
      "éī": 2962,
      "èĨľ": 2963,
      "æĸ½å·¥": 2964,
      "çĭł": 2965,
      "åįĩçº§": 2966,
      "æıı": 2967,
      "å½ĵæĹ¶": 2968,
      "åĢ¼å¾Ĺ": 2969,
      "çªģçĦ¶": 2970,
      "éķ¿æľŁ": 2971,
      "éĢĤåĲĪ": 2972,
      "è¡¡": 2973,
      "å²¸": 2974,
      "åıĳæĮ¥": 2975,
      "æľĢé«ĺ": 2976,
      "å¹¿å·ŀ": 2977,
      "åĬŀæ³ķ": 2978,
      "èĢĮæĺ¯": 2979,
      "éł»": 2980,
      "ç¯Ģ": 2981,
      "åı¦ä¸Ģ": 2982,
      "éĤ£ä¸ª": 2983,
      "éłĺ": 2984,
      "ãĢĤ(": 2985,
      "èħ¾": 2986,
      "éĦ": 2987,
      "ç§»åĬ¨": 2988,
      "è¡ĮçļĦ": 2989,
      "è¡ĮæĶ¿": 2990,
      "éģĬ": 2991,
      "æ¹¿": 2992,
      "æĿ°": 2993,
      "æĺİç¡®": 2994,
      "èļ": 2995,
      "æį·": 2996,
      "æĬĢèĥ½": 2997,
      "ç¢İ": 2998,
      "æł¹æľ¬": 2999,
      "33": 3000,
      "èĭ±åĽ½": 3001,
      "âĢĺ": 3002,
      "åį·": 3003,
      "id": 3004,
      "ä¸ĭéĿ¢": 3005,
      "å½ĵåľ°": 3006,
      "æºĸ": 3007,
      "07": 3008,
      "è½¦è¾Ĩ": 3009,
      "ä¾ĽåºĶ": 3010,
      "è©¦": 3011,
      "åĲ¸å¼ķ": 3012,
      "çłĶåıĳ": 3013,
      "è´¯": 3014,
      "ä»ĸä»¬çļĦ": 3015,
      "ä¸Ŀè¢ľ": 3016,
      "æĻ¨": 3017,
      "ä¸»å¸Ń": 3018,
      "æł·çļĦ": 3019,
      "è¯¾ç¨ĭ": 3020,
      "çĻ¼å±ķ": 3021,
      "æĽ¼": 3022,
      "åĽłçĤº": 3023,
      "å§¿": 3024,
      "å±ģ": 3025,
      "çĶ·åıĭ": 3026,
      "å±ķç¤º": 3027,
      "èĥ¶": 3028,
      "æķ´ä½ĵ": 3029,
      "å¥³åŃ©": 3030,
      "èĤĮ": 3031,
      "ç§Ĵ": 3032,
      "ä¸»åĬ¨": 3033,
      "åĩłä¸ª": 3034,
      "å¼ķèµ·": 3035,
      "å§Ĩ": 3036,
      "çģ°": 3037,
      "ion": 3038,
      "ĠR": 3039,
      "ä¸įäºĨ": 3040,
      "æĳĩ": 3041,
      "éŀĭ": 3042,
      "çŁ¿": 3043,
      "é©Ĺ": 3044,
      "ãģ®": 3045,
      "500": 3046,
      "åĹİ": 3047,
      "åĬ¨åĬĽ": 3048,
      "æµ´": 3049,
      "å¿ĥçĲĨ": 3050,
      "æĺ¯ä»Ģä¹Ī": 3051,
      "bet": 3052,
      "2014": 3053,
      "ç»ıçĲĨ": 3054,
      "ght": 3055,
      "ä¼ģæ¥Ń": 3056,
      "ä¼¯": 3057,
      "tp": 3058,
      "ç´«": 3059,
      "é¦¬": 3060,
      "æľ±": 3061,
      "çıį": 3062,
      "éĩįè¦ģçļĦ": 3063,
      "çĴ°": 3064,
      "åģ·æĭį": 3065,
      "å¤§åħ¨": 3066,
      "æ³ī": 3067,
      "æĪĲç»©": 3068,
      "èĢģå©Ĩ": 3069,
      "ĠâĢľ": 3070,
      "un": 3071,
      "æķ¬": 3072,
      "çĽĳçĿ£": 3073,
      "çĸ¾çĹħ": 3074,
      "æĽ¿": 3075,
      "æ¬£": 3076,
      "åĭĴ": 3077,
      "ç¼ĸè¾ĳ": 3078,
      "åħ¬åı¸çļĦ": 3079,
      "æ¥µ": 3080,
      "ç´Ħ": 3081,
      "åĩĮ": 3082,
      "éĽĨä¸Ń": 3083,
      "ç»Łä¸Ģ": 3084,
      "åĲĮæ¯Ķ": 3085,
      "åĪºæ¿Ģ": 3086,
      "åĲĪçĲĨ": 3087,
      "éĢļçŁ¥": 3088,
      "éĤ¦": 3089,
      "ä¹Łåı¯ä»¥": 3090,
      "è´¸æĺĵ": 3091,
      "éĩĩåıĸ": 3092,
      "é¾Ħ": 3093,
      "äº«åıĹ": 3094,
      "éĢĴ": 3095,
      "èŃ·": 3096,
      "æģ¢": 3097,
      "å°¿": 3098,
      "è§ĦèĮĥ": 3099,
      "ĠçļĦ": 3100,
      "æķ°éĩı": 3101,
      "èµĮ": 3102,
      "ä¼¸": 3103,
      "èĤĸ": 3104,
      "éļ¨": 3105,
      "å¢¨": 3106,
      "æĥ³åĪ°": 3107,
      "ç¯®": 3108,
      "è¿Ļæ¬¡": 3109,
      "çĤ¸": 3110,
      "çŃ¹": 3111,
      "æĬķåħ¥": 3112,
      "å½±éĻ¢": 3113,
      "èĤ¡ä»½": 3114,
      "éĽ¢": 3115,
      "åĦ¿ç«¥": 3116,
      "è´¹çĶ¨": 3117,
      "æĭĵ": 3118,
      "éĿ¢å¯¹": 3119,
      "æİ¨å¹¿": 3120,
      "ä¼ĺåĮĸ": 3121,
      "ç¥Ŀ": 3122,
      "çĽĪ": 3123,
      "åºŁ": 3124,
      "åįıè®®": 3125,
      "åŁ¹åħ»": 3126,
      "ay": 3127,
      "æľ¬æĸĩ": 3128,
      "ä¹Łä¼ļ": 3129,
      "ä»£çĲĨ": 3130,
      "è¼ķ": 3131,
      "Ġ3": 3132,
      "æīİ": 3133,
      "åºĦ": 3134,
      "å°±åľ¨": 3135,
      "éľ¸": 3136,
      "åħ¬å¼Ģ": 3137,
      "ç¨¿": 3138,
      "æ¢ģ": 3139,
      "âĹ": 3140,
      "å¼ĥ": 3141,
      "èĳ£äºĭ": 3142,
      "å£ģ": 3143,
      "å¿½": 3144,
      "åĲĪåĲĮ": 3145,
      "éļĽ": 3146,
      "æ£Ģæµĭ": 3147,
      "æ£ĭçīĮ": 3148,
      "çĵľ": 3149,
      "éĢ²è¡Į": 3150,
      "æŁĶ": 3151,
      "æ¦ľ": 3152,
      "æ¯ķä¸ļ": 3153,
      "è¯¦ç»Ĩ": 3154,
      "ç½ļ": 3155,
      "å¹¿ä¸ľ": 3156,
      "å®ŀè·µ": 3157,
      "æĶ¹åıĺ": 3158,
      "å®¶çļĦ": 3159,
      "æĳĨ": 3160,
      "èĢĥè¯ķ": 3161,
      "åıĥ": 3162,
      "çĿĽ": 3163,
      "è¿Ĳè¡Į": 3164,
      "å²Ĺ": 3165,
      "æµģåĩº": 3166,
      "éĻ·": 3167,
      "åĬŀçĲĨ": 3168,
      "//": 3169,
      "çĽĳç®¡": 3170,
      "66": 3171,
      "éĢĻåĢĭ": 3172,
      "éŁ³ä¹Ĳ": 3173,
      "çļĦåıĳå±ķ": 3174,
      "çĪ¾": 3175,
      "è®¾ç½®": 3176,
      "éĢĥ": 3177,
      "ç´ħ": 3178,
      "è¢ĭ": 3179,
      "å¹»": 3180,
      "ç¼ĺ": 3181,
      "æ²Ī": 3182,
      "æĻ¶": 3183,
      "æİ¨åĩº": 3184,
      "æĹłè®º": 3185,
      "èĲ¥éĶĢ": 3186,
      "å§ĵ": 3187,
      "æĲľç´¢": 3188,
      "éĥĳ": 3189,
      "ç»ĵæĿŁ": 3190,
      "ç»ķ": 3191,
      "éĥ½åľ¨": 3192,
      "æĿ¥çľĭ": 3193,
      "åīįçļĦ": 3194,
      "è®¤è¯Ĩ": 3195,
      "ä»ĵ": 3196,
      "æ¡Į": 3197,
      "åķ¦": 3198,
      "éĤĢ": 3199,
      "å¾Īæĺ¯": 3200,
      "åħ»èĢģ": 3201,
      "è®°å½ķ": 3202,
      "å¦ĸ": 3203,
      "çĤ¹åĩ»": 3204,
      "è¿ĳå¹³": 3205,
      "è¯Ħè®º": 3206,
      "ä¸ĬäºĨ": 3207,
      "æĿ¥äºĨ": 3208,
      "èĥİ": 3209,
      "åĨĴ": 3210,
      "å°ıå§Ĳ": 3211,
      "ä¸Ģä½į": 3212,
      "æĭ¼": 3213,
      "éĩįæĸ°": 3214,
      "ex": 3215,
      "å¾Ħ": 3216,
      "å¹´åº¦": 3217,
      "èĻŁ": 3218,
      "æĢ§èĥ½": 3219,
      "æµĵ": 3220,
      "éĭ": 3221,
      "åĩĿ": 3222,
      "è²·": 3223,
      "çļ®èĤ¤": 3224,
      "èĸĦ": 3225,
      "èµĦæľ¬": 3226,
      "04": 3227,
      "ĠB": 3228,
      "åħ¬å¸ĥ": 3229,
      "æļĤ": 3230,
      "åĪĳ": 3231,
      "å¤©ä¸ĭ": 3232,
      "åıĮæĸ¹": 3233,
      "åĭ¢": 3234,
      "è´·æ¬¾": 3235,
      "å®£å¸ĥ": 3236,
      "å§Ķåĳĺä¼ļ": 3237,
      "éĿĴå¹´": 3238,
      "77": 3239,
      "åĲŁ": 3240,
      "æ²Ł": 3241,
      "èİ±": 3242,
      "åĮ»çĶŁ": 3243,
      "å®ħ": 3244,
      "å®ļçļĦ": 3245,
      "çĲĨè®º": 3246,
      "éªĹ": 3247,
      "Ġ2": 3248,
      "çĲĨè§£": 3249,
      "åľ¨çº¿è§Ĥçľĭ": 3250,
      "èº«ä»½": 3251,
      "èĩĢ": 3252,
      "çĶŁçī©": 3253,
      "å£°éŁ³": 3254,
      "ä¸Ģå®ļè¦ģ": 3255,
      "ä¼į": 3256,
      "Ġ1": 3257,
      "åĬłå·¥": 3258,
      "å«Į": 3259,
      "åĲ¹": 3260,
      "æĽ´å¤ļçļĦ": 3261,
      "èİī": 3262,
      "åŁºåľ°": 3263,
      "é£Łçī©": 3264,
      "ç±į": 3265,
      "æ¬Ĭ": 3266,
      "å½±çīĩ": 3267,
      "åĩºåı£": 3268,
      "åĿ¦": 3269,
      "è®©äºº": 3270,
      "ä»Ķ": 3271,
      "çī¹çĤ¹": 3272,
      "åĪĽéĢł": 3273,
      "æĮĳæĪĺ": 3274,
      "æ¼ı": 3275,
      "åħļçļĦ": 3276,
      "èĤº": 3277,
      "çĤ¼": 3278,
      "å¿ĥçļĦ": 3279,
      "è³¼": 3280,
      "çī¹æ®Ĭ": 3281,
      "05": 3282,
      "éĲ": 3283,
      "éĵº": 3284,
      "æĭľ": 3285,
      "æ°ĳæĹı": 3286,
      "çĮª": 3287,
      "ĠT": 3288,
      "æ¸ħæ¥ļ": 3289,
      "æĺ¯ä¸Ģç§į": 3290,
      "ä¸īä¸ª": 3291,
      "æ·ĺ": 3292,
      "å®ĥçļĦ": 3293,
      "æĬķèµĦèĢħ": 3294,
      "å¤§å¤ļ": 3295,
      "âĢĿãĢģ": 3296,
      "ä¸Ģå®¶": 3297,
      "æĥ¯": 3298,
      "31": 3299,
      "æµĻ": 3300,
      "åħĦ": 3301,
      "æĻºæħ§": 3302,
      "éĶĻè¿ĩ": 3303,
      "çº¹": 3304,
      "æ²¿": 3305,
      "Ġ|": 3306,
      "ç»ıå¸¸": 3307,
      "http": 3308,
      "æ°§": 3309,
      "ä¸¥æł¼": 3310,
      "ä¸¾è¡Į": 3311,
      "çĶ¢åĵģ": 3312,
      "æĹ¦": 3313,
      "åģļåĪ°": 3314,
      "å®ĭ": 3315,
      "é¾į": 3316,
      "ç¢°": 3317,
      "æĽ´æĺ¯": 3318,
      "çģ¾": 3319,
      "éĽĻ": 3320,
      "çĶµèĦĳ": 3321,
      "ç»´æĬ¤": 3322,
      "åķıé¡Į": 3323,
      "ow": 3324,
      "ot": 3325,
      "æĪĲéķ¿": 3326,
      "èĪį": 3327,
      "åıĳå±ķçļĦ": 3328,
      "çģ£": 3329,
      "çľī": 3330,
      "èĦĤ": 3331,
      "é»ĥ": 3332,
      "æ³½": 3333,
      "è¨Ĭ": 3334,
      "è¿Ľåı£": 3335,
      "éļĨ": 3336,
      "xx": 3337,
      "æĴĳ": 3338,
      "åįĵ": 3339,
      "å¹³åĿĩ": 3340,
      "èħ°": 3341,
      "åĵ¦": 3342,
      "æ¯ıä¸ª": 3343,
      "å®Įç¾İ": 3344,
      "æĺİæĺŁ": 3345,
      "è®¾æĸ½": 3346,
      "çªģçł´": 3347,
      "çĲĨå¿µ": 3348,
      "èıĮ": 3349,
      "å±ħæ°ĳ": 3350,
      "è¿«": 3351,
      "è¾£": 3352,
      "äºķ": 3353,
      "èģĺ": 3354,
      "äºĨä¸Ģä¸ª": 3355,
      "è¿ŀç»Ń": 3356,
      "çļĦäºĭæĥħ": 3357,
      "åĪ°åºķ": 3358,
      "æĦıä¹ī": 3359,
      "è¦ª": 3360,
      "èī²æĥħ": 3361,
      "èģ½": 3362,
      "éĢļå¸¸": 3363,
      "åĨľæĿĳ": 3364,
      "å°±èĥ½": 3365,
      "è°ĵ": 3366,
      "èµı": 3367,
      "æľĢå¤§çļĦ": 3368,
      "æµĭè¯ķ": 3369,
      "åĨľä¸ļ": 3370,
      "ç¾©": 3371,
      "å¥Ī": 3372,
      "çĽ¸å¯¹": 3373,
      "åİ»äºĨ": 3374,
      "æľĢä½³": 3375,
      "çī¢": 3376,
      "å¿ħè¦ģ": 3377,
      "é³": 3378,
      "å¹¸ç¦ı": 3379,
      "æ±¡æŁĵ": 3380,
      "ä»įçĦ¶": 3381,
      "æ»´": 3382,
      "è³½": 3383,
      "æľºåĻ¨": 3384,
      "è£Ĥ": 3385,
      "èº«ä¸Ĭ": 3386,
      "åģļçĪ±": 3387,
      "åŀĭçļĦ": 3388,
      "é©»": 3389,
      "ä»ģ": 3390,
      "è¯ģåĪ¸": 3391,
      "äººä½ĵ": 3392,
      "æĽ´å¥½": 3393,
      "éĻĲåĪ¶": 3394,
      "Ġåľ¨": 3395,
      "éį": 3396,
      "æķĪçİĩ": 3397,
      "æİĴåĲį": 3398,
      "çĪ¶æ¯į": 3399,
      "2022": 3400,
      "ä¸Ńåįİ": 3401,
      "èªī": 3402,
      "å¨ľ": 3403,
      "éĻ³": 3404,
      "å°±ä¸ļ": 3405,
      "çľ¼çĿĽ": 3406,
      "é¤Ĭ": 3407,
      "çļĦå¥½": 3408,
      "æ²»çĲĨ": 3409,
      "æĪĲæŀľ": 3410,
      "ä¼ĺç§Ģ": 3411,
      "å¢ŀå¼º": 3412,
      "çļĦåľ°æĸ¹": 3413,
      "æĬ½æıĴ": 3414,
      "é¡¯": 3415,
      "ä¸ĢåĪĩ": 3416,
      "æ¯Ķä¾ĭ": 3417,
      "åı¯çĪ±": 3418,
      "éŁ¿": 3419,
      "éģ©": 3420,
      "ç»ıåİĨ": 3421,
      "è·Ŀç¦»": 3422,
      "çĶĺ": 3423,
      "æĹ¥å¸¸": 3424,
      "æĸĩæĺİ": 3425,
      "è»į": 3426,
      "æ¬§æ´²": 3427,
      "ä¸įå¥½": 3428,
      "æµģç¨ĭ": 3429,
      "æŃ¡": 3430,
      "åģ¿": 3431,
      "æ³ķéĻ¢": 3432,
      "ä¸Ģå¤©": 3433,
      "æľīæīĢ": 3434,
      "ç»Łè®¡": 3435,
      "://": 3436,
      "å®ĥä»¬": 3437,
      "ä¹łè¿ĳå¹³": 3438,
      "å°ĸ": 3439,
      "æľ¬èº«": 3440,
      "çİĦ": 3441,
      "ä¼ı": 3442,
      "æĶ¹åĸĦ": 3443,
      "ä¹Į": 3444,
      "å¯¸": 3445,
      "çİ¯ä¿Ŀ": 3446,
      "è¿¹": 3447,
      "çŃīçŃī": 3448,
      "èī³": 3449,
      "èĭ¹": 3450,
      "çĭ¼": 3451,
      "åıĶ": 3452,
      "å¤©æ´¥": 3453,
      "æĪĲåĳĺ": 3454,
      "åĨħçļĦ": 3455,
      "æĪ²": 3456,
      "æĸ·": 3457,
      "çĪ²": 3458,
      "æ¢¯": 3459,
      "åĪ©çĽĬ": 3460,
      "çĵ¶": 3461,
      "çľ¾": 3462,
      "çĻ¾åº¦": 3463,
      "èµĶ": 3464,
      "æĦıæĢĿ": 3465,
      "ä¼Ļä¼´": 3466,
      "åľ°äº§": 3467,
      "æ¬¡æĴŃæĶ¾": 3468,
      "éĹ²": 3469,
      "æĺĮ": 3470,
      "åħ¬å®ī": 3471,
      "å¾Īå¥½": 3472,
      "å®ı": 3473,
      "ä¸įè¶³": 3474,
      "æ®ĭ": 3475,
      "éĶħ": 3476,
      "å£ĵ": 3477,
      "ç©ºæ°Ķ": 3478,
      "åĬłä¸Ĭ": 3479,
      "çīĪæĿĥ": 3480,
      "ç£ģ": 3481,
      "èĢģåħ¬": 3482,
      "ä¼¼ä¹İ": 3483,
      "è´¢æĶ¿": 3484,
      "è¿ĳæĹ¥": 3485,
      "å®ŀåĬĽ": 3486,
      "æķĮ": 3487,
      "æŀª": 3488,
      "ent": 3489,
      "åĬłå¿«": 3490,
      "æķĻæİĪ": 3491,
      "åĭ¤": 3492,
      "åľŁåľ°": 3493,
      "èĭ¹æŀľ": 3494,
      "å¯¹æĸ¹": 3495,
      "44": 3496,
      "åŃ£åº¦": 3497,
      "ä»¿": 3498,
      "çĵ¦": 3499,
      "è¤": 3500,
      "æ¸ł": 3501,
      "èĲĮ": 3502,
      "è¿Ľè¡ĮäºĨ": 3503,
      "å¡«": 3504,
      "æ³ģ": 3505,
      "**": 3506,
      "è¨Ńè¨Ī": 3507,
      "æľīäºĨ": 3508,
      "ä»İèĢĮ": 3509,
      "æĺ¯ä¸į": 3510,
      "çķ«": 3511,
      "ä»¤äºº": 3512,
      "äºŀ": 3513,
      "ç´°": 3514,
      "æ±¤": 3515,
      "ä¸ĭä¸Ģ": 3516,
      "ä»Ģéº¼": 3517,
      "ä¾ĿçĦ¶": 3518,
      "å¤§åĬĽ": 3519,
      "ä¿¡çĶ¨": 3520,
      "åĩŃ": 3521,
      "ç½Ĺæĸ¯": 3522,
      "æĸ°èĥ½æºĲ": 3523,
      "å¨ĩ": 3524,
      "ç²¾å½©": 3525,
      "é»¨": 3526,
      "çļĦæĸ¹å¼ı": 3527,
      "éī´": 3528,
      "æĴŀ": 3529,
      "è¾ħ": 3530,
      "æħĭ": 3531,
      "çĽĴ": 3532,
      "and": 3533,
      "èĢħçļĦ": 3534,
      "å°±åĥı": 3535,
      "å°ıç¼ĸ": 3536,
      "ä¾ĭå¦Ĥ": 3537,
      "åĲ¯åĬ¨": 3538,
      "é©¾é©¶": 3539,
      "çİ»": 3540,
      "æĬĢå·§": 3541,
      "æĢĴ": 3542,
      "èĲ¨": 3543,
      "é»ĳä¸Ŀ": 3544,
      "op": 3545,
      "éĩįåºĨ": 3546,
      "éħįåĲĪ": 3547,
      "åĬ²": 3548,
      "éĩĮéĿ¢": 3549,
      "é¦ĸæ¬¡": 3550,
      "è§Ĵèī²": 3551,
      "çĴĥ": 3552,
      "91": 3553,
      "å¦Ĥæŀľä½ł": 3554,
      "å®ŀéªĮ": 3555,
      "38": 3556,
      "ç²¾åĵģ": 3557,
      "èĬĤçĽ®": 3558,
      "èī¾": 3559,
      "ä¹ĭå¤ĸ": 3560,
      "åĽ°éļ¾": 3561,
      "å¥¸": 3562,
      "çĨĬ": 3563,
      "åįıä¼ļ": 3564,
      "ç¿Ĵ": 3565,
      "é¢Ħè®¡": 3566,
      "ä½įäºİ": 3567,
      "åĴĸ": 3568,
      "æīĵå¼Ģ": 3569,
      "éĥŃ": 3570,
      "98": 3571,
      "çī©æµģ": 3572,
      "æŁ¥çľĭ": 3573,
      "å¿Ĩ": 3574,
      "ç»¿èī²": 3575,
      "éłĲ": 3576,
      "ĠI": 3577,
      "è°ĭ": 3578,
      "çļĦå¿ĥ": 3579,
      "å»ī": 3580,
      "åįĬå¹´": 3581,
      "æľºæ¢°": 3582,
      "è®¤çľŁ": 3583,
      "åĩ¯": 3584,
      "çµĤ": 3585,
      "æ¶īåıĬ": 3586,
      "ä¸įçĶ¨": 3587,
      "äººåľ¨": 3588,
      "è¶ĭåĬ¿": 3589,
      "éĻª": 3590,
      "ç¾Ĭ": 3591,
      "æµ®": 3592,
      "èĥŀ": 3593,
      "éĮ¢": 3594,
      "åħ½": 3595,
      "å·¥ä½ľçļĦ": 3596,
      "è®Ńç»ĥ": 3597,
      "çĽ¸æ¯Ķ": 3598,
      "åį³åı¯": 3599,
      "æĶ¾åľ¨": 3600,
      "è¯Ħä»·": 3601,
      "è¾Ľ": 3602,
      "çīĪæľ¬": 3603,
      "æģ¢å¤į": 3604,
      "å¾¡": 3605,
      "æĭĶ": 3606,
      "......âĢĿ": 3607,
      "å°ĳå¹´": 3608,
      "åĩłä¹İ": 3609,
      "em": 3610,
      "è¦ĸéł»": 3611,
      "çİ°å®ŀ": 3612,
      "åī©": 3613,
      "è¿ĺè¦ģ": 3614,
      "è²Į": 3615,
      "éĳ": 3616,
      "å¯¶": 3617,
      "ĠL": 3618,
      "å¦Ļ": 3619,
      "æľ¬æ¬¡": 3620,
      "çĽ¸å½ĵ": 3621,
      "æľīçĤ¹": 3622,
      "åģ¶": 3623,
      "éº¦": 3624,
      "çĪ¸çĪ¸": 3625,
      "éħįç½®": 3626,
      "äººå·¥": 3627,
      "å¾ª": 3628,
      "ä»ĬæĹ¥": 3629,
      "ä¸įåĨį": 3630,
      "æįķ": 3631,
      "æľŁçļĦ": 3632,
      "çĪ¶äº²": 3633,
      "å½ĵåīį": 3634,
      "å°ĺ": 3635,
      "ä»¥ä¸º": 3636,
      "å·²ç¶ĵ": 3637,
      "ä¸ĭåįĪ": 3638,
      "ç¶Ń": 3639,
      "éģĩåĪ°": 3640,
      "è¡£æľį": 3641,
      "os": 3642,
      "æĿľ": 3643,
      "éĹª": 3644,
      "å°Ĩåľ¨": 3645,
      "å¾Ĵ": 3646,
      "ãĢĤãĢį": 3647,
      "å¸ħ": 3648,
      "ç¬¬ä¸Ģæ¬¡": 3649,
      "åĴ±": 3650,
      "æľĢå¥½": 3651,
      "çĬ¶åĨµ": 3652,
      "çĹħæ¯Ĵ": 3653,
      "æĵ¦": 3654,
      "åĭ¾": 3655,
      "æĻļä¸Ĭ": 3656,
      "éĿ¢ç§¯": 3657,
      "æĿĨ": 3658,
      "åľĴ": 3659,
      "æİĮæı¡": 3660,
      "æĮĩæłĩ": 3661,
      "è´§å¸ģ": 3662,
      "å¤º": 3663,
      "ä¸įçŁ¥": 3664,
      "åı¯èĥ½ä¼ļ": 3665,
      "æµĻæ±Ł": 3666,
      "06": 3667,
      "å¤ļä¸ª": 3668,
      "å·¨ä¹³": 3669,
      "æ¶Ĥ": 3670,
      "ä¸ĢåĲį": 3671,
      "éģł": 3672,
      "è©ķ": 3673,
      "éħ·": 3674,
      "æĹłäºº": 3675,
      "åĲ¨": 3676,
      "ab": 3677,
      "ä¸įä½ı": 3678,
      "æĽĿ": 3679,
      "çļĦä¸į": 3680,
      "çį²": 3681,
      "èĩº": 3682,
      "é«ĺéĢŁ": 3683,
      "ç²Ĺ": 3684,
      "é©±": 3685,
      "éģĵè·¯": 3686,
      "èŃĺ": 3687,
      "åħ±äº«": 3688,
      "300": 3689,
      "æĭĴ": 3690,
      "ç¨±": 3691,
      "åĲįåŃĹ": 3692,
      "çĲĥéĺŁ": 3693,
      "åĲĬ": 3694,
      "ä¸įç®¡": 3695,
      "æĦŁåĪ°": 3696,
      "åį³ä½¿": 3697,
      "åģľè½¦": 3698,
      "åĨħéĥ¨": 3699,
      "é»Ħéĩĳ": 3700,
      "è§ĦåĪĻ": 3701,
      "æĹĭ": 3702,
      "ç¬¬åĽĽ": 3703,
      "åĪ¶å®ļ": 3704,
      "çĻ»å½ķ": 3705,
      "åıĳè¡¨": 3706,
      "çĸ¯": 3707,
      "è½¨": 3708,
      "ç¨į": 3709,
      "è£ħä¿®": 3710,
      "è´Łè´£äºº": 3711,
      "å¥Ķ": 3712,
      "ä¸Ĭè¿°": 3713,
      "ç«¹": 3714,
      "ä¸¾åĬŀ": 3715,
      "éĢĨ": 3716,
      "ç¦»å¼Ģ": 3717,
      "éģµ": 3718,
      "mm": 3719,
      "å¤§ä¼ļ": 3720,
      "å°±è¦ģ": 3721,
      "å°Ŀ": 3722,
      "æĿŃ": 3723,
      "äººåı£": 3724,
      "èĳ¡": 3725,
      "ç»ıåħ¸": 3726,
      "ç»Īäºİ": 3727,
      "äººç±»": 3728,
      "å¤©çĦ¶": 3729,
      "èĪĶ": 3730,
      "åıįåºĶ": 3731,
      "é¸Ł": 3732,
      "åĩºåİ»": 3733,
      "æİ¢ç´¢": 3734,
      "ä¿Ĺ": 3735,
      "åĸĬ": 3736,
      "æĦŁæŁĵ": 3737,
      "æ´ª": 3738,
      "ä¼łå¥ĩ": 3739,
      "ç°¡": 3740,
      "ç½©": 3741,
      "ur": 3742,
      "åĲĮæł·": 3743,
      "æĦŁåıĹ": 3744,
      "ä»¥åīį": 3745,
      "å¸Ĥåł´": 3746,
      "us": 3747,
      "å®Ŀå®Ŀ": 3748,
      "æµ©": 3749,
      "é«ĺåº¦": 3750,
      "èªŀ": 3751,
      "éĬĢ": 3752,
      "çļĦæĹ¶éĹ´": 3753,
      "åĪ©æ¶¦": 3754,
      "çķħ": 3755,
      "èĢĢ": 3756,
      "æŃ»äº¡": 3757,
      "48": 3758,
      "ir": 3759,
      "æľºåĬ¨è½¦": 3760,
      "å¨ĥ": 3761,
      "è´¡": 3762,
      "08": 3763,
      "äººéĥ½": 3764,
      "çĥ¦": 3765,
      "äººå¦»": 3766,
      "æĭĨ": 3767,
      "ä¸Ĭä¸Ģ": 3768,
      "åĶ¯ä¸Ģ": 3769,
      "æľĪä»½": 3770,
      "åĮĹäº¬å¸Ĥ": 3771,
      "å¥³åĦ¿": 3772,
      "éĥ¨ç½²": 3773,
      "æĵĬ": 3774,
      "ä¿Ħç½Ĺæĸ¯": 3775,
      "ĠH": 3776,
      "ç¾½": 3777,
      "é«ĺé¢ľåĢ¼": 3778,
      "é£İæł¼": 3779,
      "ç¼´": 3780,
      "è®©æĪĳ": 3781,
      "è¯ģæĺİ": 3782,
      "å©´": 3783,
      "æĻĤåĢĻ": 3784,
      "æĬĢè¡ĵ": 3785,
      "åĳ»": 3786,
      "åĲĦåľ°": 3787,
      "åĬ¨æ¼«": 3788,
      "çļĦæĥħ": 3789,
      "ä¹łæĥ¯": 3790,
      "åħ¬éĩĮ": 3791,
      "ä¸Ńå°ı": 3792,
      "çĲĥåĳĺ": 3793,
      "å¿«ä¹Ĳ": 3794,
      "ç«ĭåį³": 3795,
      "æĪĳæĺ¯": 3796,
      "æ§ĭ": 3797,
      "çĭĢ": 3798,
      "çİ»çĴĥ": 3799,
      "âĢĿâĢľ": 3800,
      "éİ": 3801,
      "ãģĹ": 3802,
      "çģŃ": 3803,
      "æĶ¶çĽĬ": 3804,
      "åħ´è¶£": 3805,
      "æº«": 3806,
      "åıĺå¾Ĺ": 3807,
      "å¼ºè°ĥ": 3808,
      "æŁľ": 3809,
      "95": 3810,
      "èĪ°": 3811,
      "èĩ³å°ĳ": 3812,
      "å£°æĺİ": 3813,
      "ĠG": 3814,
      "Ġ/": 3815,
      "æ¸łéģĵ": 3816,
      "çŀ¬": 3817,
      "é¨": 3818,
      "èĢĮè¨Ģ": 3819,
      "æ³¥": 3820,
      "æŃ£ç¡®": 3821,
      "éĩıçļĦ": 3822,
      "æĸ¹éĿ¢çļĦ": 3823,
      "å®¶éķ¿": 3824,
      "æĸ°åįİ": 3825,
      "IP": 3826,
      "å¤ļç§į": 3827,
      "çĸ¼": 3828,
      "åĳ»åĲŁ": 3829,
      "åħģ": 3830,
      "èĥĨ": 3831,
      "å±¤": 3832,
      "ãĢĤ,ãĢĤ": 3833,
      "åĬŀåħ¬å®¤": 3834,
      "åĵŃ": 3835,
      "åĵªéĩĮ": 3836,
      "Ġå¤§": 3837,
      "è¾ī": 3838,
      "ç½ĳçº¢": 3839,
      "åħļåĳĺ": 3840,
      "æ¨ª": 3841,
      "æľīçĿĢ": 3842,
      "äºĭæķħ": 3843,
      "æ°Ķè´¨": 3844,
      "éĻĦè¿ĳ": 3845,
      "æĦĪ": 3846,
      "è¯Ńè¨Ģ": 3847,
      "åįĶ": 3848,
      "äºİæĺ¯": 3849,
      "æĢ§çĪ±": 3850,
      "ãĢį,": 3851,
      "åı¬å¼Ģ": 3852,
      "è£Ļ": 3853,
      "åĪ«äºº": 3854,
      "çº¿ä¸Ĭ": 3855,
      "éĿ¢ä¸´": 3856,
      "åĲįçļĦ": 3857,
      "åİŁåĪĻ": 3858,
      "æľ¬ç«Ļ": 3859,
      "å¿ł": 3860,
      "æĵĩ": 3861,
      "å±±ä¸ľ": 3862,
      "æ°ı": 3863,
      "çħ¤": 3864,
      "æĺ¯ä¸įæĺ¯": 3865,
      "âĢĵ": 3866,
      "åºĬä¸Ĭ": 3867,
      "å±¥": 3868,
      "éĽ²": 3869,
      "æĲ¬": 3870,
      "æĦıåĳ³": 3871,
      "å°½ç®¡": 3872,
      "å¥³çĶŁ": 3873,
      "çĶ·åŃĲ": 3874,
      "ç»ª": 3875,
      "æ®ĸ": 3876,
      "çį¨": 3877,
      "è¿ħéĢŁ": 3878,
      "åĩī": 3879,
      "åĢ¾": 3880,
      "çı¾åľ¨": 3881,
      "å¾Īå¤§": 3882,
      "æĽ¾ç»ı": 3883,
      "âĨ": 3884,
      "å¤Ħäºİ": 3885,
      "è£ħå¤ĩ": 3886,
      "å¿§": 3887,
      "èĪªç©º": 3888,
      "of": 3889,
      "ä¼ļæľī": 3890,
      "å§ĳ": 3891,
      "çļĦä¸»": 3892,
      "æ¸¬": 3893,
      "å¤§åĪ©": 3894,
      "èĬ¯": 3895,
      "ä¹ĥ": 3896,
      "é£Ľ": 3897,
      "å¤ł": 3898,
      "ä¸įè¦ģéĶĻè¿ĩ": 3899,
      "çŃĸçķ¥": 3900,
      "è¯¸": 3901,
      "éĤª": 3902,
      "éĵ¾æİ¥": 3903,
      "65": 3904,
      "éĻ½": 3905,
      "éĿĪ": 3906,
      "èį·": 3907,
      "éĢĻäºĽ": 3908,
      "å·¥èīº": 3909,
      "å¤©å¤©": 3910,
      "å½¢è±¡": 3911,
      "å¯¿": 3912,
      "ä¸ĭåİ»": 3913,
      "Ġb": 3914,
      "å°ıçļĦ": 3915,
      "åĿ¡": 3916,
      "æµ·å¤ĸ": 3917,
      "å¹¿æ³Ľ": 3918,
      "åĦ¿åŃĲ": 3919,
      "è¼ī": 3920,
      "ä¸Ģè·¯": 3921,
      "è¾°": 3922,
      "å¸¦çĿĢ": 3923,
      "è£½": 3924,
      "å½¼": 3925,
      "åıĤèĢĥ": 3926,
      "é¼»": 3927,
      "è¯±äºº": 3928,
      "é¢Ĺ": 3929,
      "åĬ¨ä½ľ": 3930,
      "åĵģè´¨": 3931,
      "ç¢³": 3932,
      "æ¼«çĶ»": 3933,
      "75": 3934,
      "æ¯ıå¹´": 3935,
      "ç¶²ç«Ļ": 3936,
      "éĮ¯": 3937,
      "åŃ¤": 3938,
      "ä¸ºä¸»": 3939,
      "éĸĭå§ĭ": 3940,
      "åı°çģ£": 3941,
      "Ġ4": 3942,
      "æĥľ": 3943,
      "å¾®åįļ": 3944,
      "éĩįè§Ĩ": 3945,
      "åĽŀå®¶": 3946,
      "çµ²": 3947,
      "åĬ¨æĢģ": 3948,
      "èĥĸ": 3949,
      "äººæ°ĳå¸ģ": 3950,
      "äºĭå®ŀ": 3951,
      "èŀįèµĦ": 3952,
      "2013": 3953,
      "09": 3954,
      "æľŁå¾ħ": 3955,
      "å£®": 3956,
      "å¼ºåĮĸ": 3957,
      "æĮĩæķ°": 3958,
      "æª¢": 3959,
      "çĤĴ": 3960,
      "ç¾İåľĭ": 3961,
      "éĢĻæ¨£": 3962,
      "æ¯įäº²": 3963,
      "ä¼ļåĳĺ": 3964,
      "äºĮåįģ": 3965,
      "å¹¿å¤§": 3966,
      "æŃ¦æ±ī": 3967,
      "om": 3968,
      "æŁ³": 3969,
      "ĠD": 3970,
      "éĻ¶": 3971,
      "æ°Ľ": 3972,
      "æĥħè¶£": 3973,
      "èĥĮæĻ¯": 3974,
      "éı": 3975,
      "è·ĥ": 3976,
      "æ¬§ç¾İ": 3977,
      "æ¿Ł": 3978,
      "èŀįåĲĪ": 3979,
      "éŁĵ": 3980,
      "æĪĳæĥ³": 3981,
      "çĶµæ±ł": 3982,
      "åŀĥ": 3983,
      "è¯´éģĵ": 3984,
      "ãĥ³": 3985,
      "è¦ĨçĽĸ": 3986,
      "èĹĿ": 3987,
      "Ġm": 3988,
      "åĲĲ": 3989,
      "äººçĶŁ": 3990,
      "é«ĺæł¡": 3991,
      "éĥİ": 3992,
      "åĩ¤": 3993,
      "çİ°è±¡": 3994,
      "æ±Łèĭı": 3995,
      "åľ¾": 3996,
      "å¤©çļĦ": 3997,
      "ä¼ĺè´¨": 3998,
      "éĬ·": 3999,
      "åĪ©çİĩ": 4000,
      "æĬĸ": 4001,
      "èĩªæĪĳ": 4002,
      "èģ·": 4003,
      ",ãĢĬ": 4004,
      "å¾Īå¿«": 4005,
      "æĹ¶æľŁ": 4006,
      "é«ĺæ½®": 4007,
      "ä¹ĭä¸Ń": 4008,
      "éĺ²æİ§": 4009,
      "åĽŀçŃĶ": 4010,
      "èĸª": 4011,
      "ç³»çµ±": 4012,
      "å¾Ģå¾Ģ": 4013,
      "ç¾İä¸½": 4014,
      "è¢Ń": 4015,
      "æĪĺæĸĹ": 4016,
      "åŀĥåľ¾": 4017,
      "éĽĸ": 4018,
      "çľŁæĺ¯": 4019,
      "çĬ¯ç½ª": 4020,
      "æī©å¤§": 4021,
      "æıŃ": 4022,
      "èĪī": 4023,
      "èĭ±è¯Ń": 4024,
      "åķĨåĬ¡": 4025,
      "éļª": 4026,
      "èĩī": 4027,
      "æĪĲéĥ½": 4028,
      "å¼ķå¯¼": 4029,
      "æĺİçĻ½": 4030,
      "è½»æĿ¾": 4031,
      "éĢĲæ¸Ĳ": 4032,
      ":ãĢĮ": 4033,
      "åĮħè£ħ": 4034,
      "çĩķ": 4035,
      "èĪĪ": 4036,
      "å¤«å¦»": 4037,
      "ç«ŁçĦ¶": 4038,
      "ä¹Łå°±æĺ¯": 4039,
      "èĢģæĿ¿": 4040,
      "åĥħ": 4041,
      "éģ¸æĵĩ": 4042,
      "å¥³åŃĲ": 4043,
      "ç²Ĵ": 4044,
      "åľ¨å®¶": 4045,
      "å¥½åĥı": 4046,
      "ä¹ı": 4047,
      "åĲĪæ³ķ": 4048,
      "åħļå§Ķ": 4049,
      "æĦ¿æĦı": 4050,
      "Ġs": 4051,
      "ä¼ļä¸Ĭ": 4052,
      "åº¦çļĦ": 4053,
      "çļĨ": 4054,
      "çµķ": 4055,
      "æĿ¥åĪ°": 4056,
      "æĪĲçļĦ": 4057,
      "åĬ¨çī©": 4058,
      "right": 4059,
      "ä½©": 4060,
      "æĲº": 4061,
      "å¥½äºĨ": 4062,
      "å±Į": 4063,
      "åĲĮå¿Ĺ": 4064,
      "ä¸ľæĸ¹": 4065,
      "Ġ5": 4066,
      "å¹«": 4067,
      "èĭ±éĽĦ": 4068,
      "ä½¿å¾Ĺ": 4069,
      "å°¤åħ¶æĺ¯": 4070,
      "åħĪè¿Ľ": 4071,
      "å¾©": 4072,
      "æıĲéĨĴ": 4073,
      "ä¼ĺæĥł": 4074,
      "ç»Ŀå¯¹": 4075,
      "äººçī©": 4076,
      "37": 4077,
      "èĤ©": 4078,
      "æħ¢æħ¢": 4079,
      "æĮĸ": 4080,
      "èĢģäºº": 4081,
      "çļĦéĤ£": 4082,
      "éĥ½èĥ½": 4083,
      "å±¬": 4084,
      "åŁºäºİ": 4085,
      "æľīä¸Ģä¸ª": 4086,
      "æ¶µ": 4087,
      "å®ļä½į": 4088,
      "è²¸": 4089,
      "åĪĬ": 4090,
      "å¦Ĩ": 4091,
      "ç»ĻäºĪ": 4092,
      "å¤§åŀĭ": 4093,
      "ä¹Łåľ¨": 4094,
      "è½¬è½½": 4095,
      "æĶ¯æĴĳ": 4096,
      "åĬłå¤§": 4097,
      "æµı": 4098,
      "1000": 4099,
      "åįģäºĮ": 4100,
      "97": 4101,
      "è¾²": 4102,
      "è®©ä½ł": 4103,
      "å¹¶æ²¡æľī": 4104,
      "ä¹ĭéĹ´çļĦ": 4105,
      "APP": 4106,
      "æ±Ĺ": 4107,
      "æĪªèĩ³": 4108,
      "æł¡åĽŃ": 4109,
      "å¤ļå¹´": 4110,
      "éĢĢä¼ĳ": 4111,
      "è¸ı": 4112,
      "ä¸Ĭåįĩ": 4113,
      "æľīä»Ģä¹Ī": 4114,
      "èĩªè¡Į": 4115,
      "è¿Ĳè¾ĵ": 4116,
      "éº½": 4117,
      "äº¿ç¾İåħĥ": 4118,
      "æ·»åĬł": 4119,
      "æŃ²": 4120,
      "å¤ªéĺ³": 4121,
      "âĢĿãĢģâĢľ": 4122,
      "çĶµåĬ¨": 4123,
      "åħ¬åĳĬ": 4124,
      "ç·Ĭ": 4125,
      "æŃ£æĺ¯": 4126,
      "åķ¡": 4127,
      "æĢ§åĴĮ": 4128,
      "åĬĥ": 4129,
      "æıĲåīį": 4130,
      "åľ¨è¿Ļ": 4131,
      "ç¾ħ": 4132,
      "çľł": 4133,
      "è¿ĩæĿ¥": 4134,
      "æ¸¸å®¢": 4135,
      "ä¸ĸçºª": 4136,
      "å¸ĥå±Ģ": 4137,
      "è§Ĥå¯Ł": 4138,
      "æłı": 4139,
      "å¤įæĿĤ": 4140,
      "è§Ĵåº¦": 4141,
      "ãĢİ": 4142,
      "è¿Ŀæ³ķ": 4143,
      "èĩªä¸»": 4144,
      "åħ¬ä¼Ĺ": 4145,
      "æĭįæĳĦ": 4146,
      "å±ķå¼Ģ": 4147,
      "èħ¹": 4148,
      "éľ²èĦ¸": 4149,
      "å¾·åĽ½": 4150,
      "âĺ": 4151,
      "å°ıåĮº": 4152,
      "å¿ĥéĩĮ": 4153,
      "åĲĦç±»": 4154,
      "æī¿æĭħ": 4155,
      "èī¯å¥½çļĦ": 4156,
      "æĲŃéħį": 4157,
      "çļĦä¸Ģä¸ª": 4158,
      "æĳĺ": 4159,
      "åĬ³åĬ¨": 4160,
      "ĠF": 4161,
      "åĲĦé¡¹": 4162,
      "å¤§å¥¶": 4163,
      "åĮħåĲ«": 4164,
      "æīĭæľ¯": 4165,
      "èĳī": 4166,
      "æĶ¹éĢł": 4167,
      "34": 4168,
      "çĲ´": 4169,
      "æĭĸ": 4170,
      "è¿ĲçĶ¨": 4171,
      "èĴĤ": 4172,
      "æµģéĩı": 4173,
      "éģĵåħ·": 4174,
      "åĲįç§°": 4175,
      "æĹº": 4176,
      "èĶ¡": 4177,
      "li": 4178,
      "æıĽ": 4179,
      "æ¤ħ": 4180,
      "åİ¨": 4181,
      "æĤ²": 4182,
      "è½¦åŀĭ": 4183,
      "å·ŀå¸Ĥ": 4184,
      "è¶ħçº§": 4185,
      "æµıè§Ī": 4186,
      "è¿ĳæľŁ": 4187,
      "æĮīæĳ©": 4188,
      "åĽŀåĪ°": 4189,
      "å±ģèĤ¡": 4190,
      "è´¡çĮ®": 4191,
      "ä¸Ĭæ¶¨": 4192,
      "ang": 4193,
      "ãĢı": 4194,
      "åºĶå½ĵ": 4195,
      "2012": 4196,
      "èµĽåŃ£": 4197,
      "è§Ĥä¼Ĺ": 4198,
      "çĭ¬ç«ĭ": 4199,
      "èģĬå¤©": 4200,
      "2000": 4201,
      "åı¯ä»¥åľ¨": 4202,
      "åħ·å¤ĩ": 4203,
      "åħħæ»¡": 4204,
      "åĴĸåķ¡": 4205,
      "æĶ¶è´¹": 4206,
      "ç¡®å®ŀ": 4207,
      "è²¨": 4208,
      "æī°": 4209,
      "åĪ°çļĦ": 4210,
      "èİ·åıĸ": 4211,
      "è®¨è®º": 4212,
      "ä¼łæĴŃ": 4213,
      "æĪĳå°±": 4214,
      "æ®º": 4215,
      "å¸ĤåľºçļĦ": 4216,
      "é»İ": 4217,
      "åĲİåħ¥": 4218,
      "é«ĺçº§": 4219,
      "ä½ĵçİ°": 4220,
      "æīĭæ®µ": 4221,
      "è²¬": 4222,
      "å¾Īæľī": 4223,
      "å¼Ģå¥ĸ": 4224,
      "åıįæĺł": 4225,
      "è´¯å½»": 4226,
      "ä¸ĬåįĪ": 4227,
      "ä¼ģä¸ļçļĦ": 4228,
      "é»Ħèī²": 4229,
      "æľºçļĦ": 4230,
      "æħİ": 4231,
      "æĺ¯ä¸ª": 4232,
      "ç®Ń": 4233,
      "çĮľ": 4234,
      "ä¸ĢæĹ¦": 4235,
      "éĤĦæĺ¯": 4236,
      "åĳĢ": 4237,
      "EO": 4238,
      "æľīåĵªäºĽ": 4239,
      "ç«Ļåľ¨": 4240,
      "çļĦåīį": 4241,
      "åİī": 4242,
      "çľŁäºº": 4243,
      "æ¦Ĥå¿µ": 4244,
      "ä¿Ĭ": 4245,
      "ãĥ¼": 4246,
      "æŁ±": 4247,
      "çĪ±æĥħ": 4248,
      "èģŀ": 4249,
      "æ´»åĭķ": 4250,
      "åį°åº¦": 4251,
      "æĹ¶æĹ¶": 4252,
      "ç±»ä¼¼": 4253,
      "å¯Ħ": 4254,
      "èµĸ": 4255,
      "96": 4256,
      "ä¹¾": 4257,
      "è¡¨éĿ¢": 4258,
      "åģļåĩº": 4259,
      "æĽ°": 4260,
      "ä¸»æĮģ": 4261,
      "æĬķæ³¨": 4262,
      "éĽ»å½±": 4263,
      "æľīå¾Īå¤ļ": 4264,
      "å¸Ĥæ°ĳ": 4265,
      "ç¤ºèĮĥ": 4266,
      "è®Ģ": 4267,
      "å°ıèªª": 4268,
      "æ¡Ĩ": 4269,
      "è¿ģ": 4270,
      "èĥĥ": 4271,
      "åłĨ": 4272,
      "å¤§éĥ¨åĪĨ": 4273,
      "æĹ¨": 4274,
      "çĸĨ": 4275,
      "åįĹäº¬": 4276,
      "è¿Ł": 4277,
      "æĳĦå½±": 4278,
      "å¥ı": 4279,
      "è°±": 4280,
      "åľ¨ä¸ŃåĽ½": 4281,
      "çŁ¥åĲį": 4282,
      "æĭ³": 4283,
      "åī²": 4284,
      "çĥ¤": 4285,
      "32": 4286,
      "æĪ¿éĹ´": 4287,
      "æĹ¶çļĦ": 4288,
      "çĽ¾": 4289,
      "çĽ¸åºĶ": 4290,
      "çĢ": 4291,
      "ç©į": 4292,
      "æĦŁè°¢": 4293,
      "ä¸Ńåħ±": 4294,
      "æĪ¿å±ĭ": 4295,
      "æ¡Īä»¶": 4296,
      "æĦıå¤ĸ": 4297,
      "èµĦæł¼": 4298,
      "Ġ:": 4299,
      "åľºæĻ¯": 4300,
      "æŃ¤åīį": 4301,
      "ap": 4302,
      "æ»ĭ": 4303,
      "é¼ĵåĬ±": 4304,
      "çľĭæĿ¥": 4305,
      "çĻĮ": 4306,
      "å½±è§Ĩ": 4307,
      "çļĦå½±åĵį": 4308,
      "è¿Ī": 4309,
      "èĦı": 4310,
      "ä¹Łè¦ģ": 4311,
      "ä¸Ģè¾¹": 4312,
      "im": 4313,
      "èĤĿ": 4314,
      "ç»ĻæĪĳ": 4315,
      "æ¤įçī©": 4316,
      "85": 4317,
      "ll": 4318,
      "è¿½æ±Ĥ": 4319,
      "å¾Īæĺ¯è¯±æĥĳ": 4320,
      "è¿ŀæİ¥": 4321,
      "å¯¹è±¡": 4322,
      "èµĦè®¯": 4323,
      "æĪĲçĨŁ": 4324,
      "è¿ĺåľ¨": 4325,
      "ĠE": 4326,
      "æ²ŁéĢļ": 4327,
      "åįģå¹´": 4328,
      "æ¨¡çī¹": 4329,
      "æĻ°": 4330,
      "æľĢå¥½çļĦ": 4331,
      "éĺ²æŃ¢": 4332,
      "æĢİæł·": 4333,
      "è¯Ħä¼°": 4334,
      "ĠW": 4335,
      "æĤł": 4336,
      "æıĲä¾ĽäºĨ": 4337,
      "æĢ»æĺ¯": 4338,
      "ç±»åŀĭ": 4339,
      "åľ¨ä¸Ģèµ·": 4340,
      "å¨±ä¹ĲåŁİ": 4341,
      "å¼ĢåĲ¯": 4342,
      "çĽ¸éĹľ": 4343,
      "æĶ»åĩ»": 4344,
      "éĥ½è¦ģ": 4345,
      "çľĭäºĨ": 4346,
      "é£¯": 4347,
      "æīįæĺ¯": 4348,
      "ä¸Ģä½ĵ": 4349,
      "çĽĲ": 4350,
      "å¾Īéļ¾": 4351,
      "ç²īä¸Ŀ": 4352,
      "åĲĦä½į": 4353,
      "æĢ»ç»ĵ": 4354,
      "åĽ½åĬ¡": 4355,
      "æĴ¸": 4356,
      "éļıåĲİ": 4357,
      "éĿ©åĳ½": 4358,
      "æµĨ": 4359,
      "èĦī": 4360,
      "åľ°ä½į": 4361,
      "åĲĮæĻĤ": 4362,
      "ct": 4363,
      "æĪĴ": 4364,
      "çĶµåķĨ": 4365,
      "åĩºä¸Ģ": 4366,
      "çķ°": 4367,
      "æ³ķåĽ½": 4368,
      "å§ĭç»Ī": 4369,
      "ä¾Ŀæ³ķ": 4370,
      "å¤§åıĳ": 4371,
      "æħķ": 4372,
      "ãĢĳãĢĲ": 4373,
      "åģľæŃ¢": 4374,
      "é§": 4375,
      "æĹ¶å°ļ": 4376,
      "åĲİæĿ¥": 4377,
      "çļĦç¾İ": 4378,
      "è§£éĩĬ": 4379,
      "æ·«èį¡": 4380,
      "åĳĪçİ°": 4381,
      "äººå¤§": 4382,
      "å¤ļäºĨ": 4383,
      "æĸ°åĨł": 4384,
      "ĠN": 4385,
      "åĨłåĨĽ": 4386,
      "ä¹Ķ": 4387,
      "ä¸ĭäºĨ": 4388,
      "éĨī": 4389,
      "ĠãĢĤ": 4390,
      "å¤§å¹ħ": 4391,
      "å®ļåĪ¶": 4392,
      "åħ¶å®ĥ": 4393,
      "éŃħ": 4394,
      "è¡Ľ": 4395,
      "å½±éŁ³": 4396,
      "eb": 4397,
      "æĹ¥åīį": 4398,
      "è²ł": 4399,
      "çİĽ": 4400,
      "æ¸©åº¦": 4401,
      "æĭħå¿ĥ": 4402,
      "å¤ļæ¬¡": 4403,
      "ä¹Łèĥ½": 4404,
      "~~": 4405,
      "éĺŁä¼į": 4406,
      "æĽ¹": 4407,
      "èĲĿ": 4408,
      "ç¿¼": 4409,
      "èįĴ": 4410,
      "æķ´åĲĪ": 4411,
      "èĹ¥": 4412,
      "æĹ¥æĬ¥": 4413,
      "å¦¹å¦¹": 4414,
      "åī§æĥħ": 4415,
      "ia": 4416,
      "åľ¨æŃ¤": 4417,
      "å§Ķä¼ļ": 4418,
      "åľį": 4419,
      "å¥ī": 4420,
      "èĲ¥ä¸ļ": 4421,
      "ä¾ł": 4422,
      "æĸ°å¢ŀ": 4423,
      "æ»ļ": 4424,
      "å®ŀè¡Į": 4425,
      "çĽ¸åĲĮ": 4426,
      "å¹¶ä¸įæĺ¯": 4427,
      "æľ¬äºº": 4428,
      "çī©è´¨": 4429,
      "æĸ¤": 4430,
      "æĪĳä¸į": 4431,
      "åĪĨç±»": 4432,
      "å¤§éĻĨ": 4433,
      "Ġå¹´": 4434,
      "å²ģçļĦ": 4435,
      "æįŁå¤±": 4436,
      "çºł": 4437,
      "åĩĨç¡®": 4438,
      "ä¸Ģæ®µ": 4439,
      "æĦıåĳ³çĿĢ": 4440,
      "ä¾£": 4441,
      "éĶĻè¯¯": 4442,
      "CP": 4443,
      "od": 4444,
      "é¸¡å·´": 4445,
      "39": 4446,
      "èµ·äºĨ": 4447,
      "å§¨": 4448,
      "cn": 4449,
      "ä¼ļåľ¨": 4450,
      "åħ¨æĸ°": 4451,
      "åĢĭäºº": 4452,
      "éĢļéģİ": 4453,
      "æ¡¶": 4454,
      "ç¶ĵæ¿Ł": 4455,
      "åĪł": 4456,
      "ä¸ĬéĿ¢": 4457,
      "æĶ¶éĽĨ": 4458,
      "ç²¾åĩĨ": 4459,
      "åĩºçīĪ": 4460,
      "çº½": 4461,
      "æĹ©é¤Ĳ": 4462,
      "çļĦçĶŁæ´»": 4463,
      "çŃīå¾ħ": 4464,
      "äº§æĿĥ": 4465,
      "ãģª": 4466,
      "ä¾¿æĺ¯": 4467,
      "éĩĩè®¿": 4468,
      "ä¸Ī": 4469,
      "åĬĩ": 4470,
      "çĽ¡": 4471,
      "åª½": 4472,
      "èĺĩ": 4473,
      "æŃ·": 4474,
      "æ¡ĳ": 4475,
      "è¸ª": 4476,
      "æ»¡æĦı": 4477,
      "78": 4478,
      "æĬ¼": 4479,
      "å°±æľī": 4480,
      "æīĢåľ¨": 4481,
      "åħĪéĶĭ": 4482,
      "ut": 4483,
      "å¹½": 4484,
      "æ²ĥ": 4485,
      "æĦŁæĥħ": 4486,
      "æİ¥è§¦": 4487,
      "å§Ĳå§Ĳ": 4488,
      "çģĮ": 4489,
      "æ¯ģ": 4490,
      "ä½ľä¸ļ": 4491,
      "æĶ¶åĪ°": 4492,
      "è¯ĳ": 4493,
      "éĢĲæŃ¥": 4494,
      "èĻ«": 4495,
      "å·¥ä½ľäººåĳĺ": 4496,
      "è´¢åĬ¡": 4497,
      "å¦»åŃĲ": 4498,
      "ç¢į": 4499,
      "éĶ¦": 4500,
      "åģļçļĦ": 4501,
      "éļ¾ä»¥": 4502,
      "æ¯ıæ¬¡": 4503,
      "æįĲ": 4504,
      "èŃ¦æĸ¹": 4505,
      "Ġå°ı": 4506,
      "æĪĳåľ¨": 4507,
      "çºµ": 4508,
      "æľŁè´§": 4509,
      "one": 4510,
      "éĩĳå±ŀ": 4511,
      "éĴ»": 4512,
      "éĢĻç¨®": 4513,
      "æĪ¿åľ°äº§": 4514,
      "åīĽ": 4515,
      "åīįå¾Ģ": 4516,
      "ç¼Ŀ": 4517,
      "ä»ĸåľ¨": 4518,
      "æīĢæľīçļĦ": 4519,
      "æ±ģ": 4520,
      "åĽĽå·Ŀ": 4521,
      "æĪĳè¦ģ": 4522,
      "æĹ¶åĪ»": 4523,
      "çĪŃ": 4524,
      "æ¹ĸåįĹ": 4525,
      "éĤ»": 4526,
      "èº«è¾¹": 4527,
      "æ³Ħ": 4528,
      "åĨħå°Ħ": 4529,
      "æīĢè°ĵ": 4530,
      "å½±éŁ¿": 4531,
      "69": 4532,
      "ä¸Ģæĺ¯": 4533,
      "æĹħè¡Į": 4534,
      "ä¸Ģä¸ªäºº": 4535,
      "æĤŁ": 4536,
      "åİĤå®¶": 4537,
      "ç²®": 4538,
      "å°±ä¸į": 4539,
      "é«ĺä¸Ń": 4540,
      "æĻĭ": 4541,
      "è·¯ä¸Ĭ": 4542,
      "èĲ¥åħ»": 4543,
      "åİŁåĪĽ": 4544,
      "é«ĺæķĪ": 4545,
      "æľµ": 4546,
      "åĶĩ": 4547,
      "å¤§å°ı": 4548,
      "Ġp": 4549,
      "æĸĳ": 4550,
      "ç¾İçļĦ": 4551,
      "ç¡®è®¤": 4552,
      "çĻľ": 4553,
      "å¾½": 4554,
      "è¡¨è¾¾": 4555,
      "çĲĨæĥ³": 4556,
      "èĢģå¹´": 4557,
      "å¹¼åĦ¿": 4558,
      "æīŃ": 4559,
      "åĬĽåº¦": 4560,
      "æĪ¿åŃĲ": 4561,
      "çªģåĩº": 4562,
      "éĢıéľ²": 4563,
      "ä¸ĩè¾Ĩ": 4564,
      "æ¶Īéĺ²": 4565,
      "é¦ĸé¡µ": 4566,
      "æ¡Īä¾ĭ": 4567,
      "èŁ": 4568,
      "Ġ2018": 4569,
      "ä¸įéģİ": 4570,
      "ä¿®æĶ¹": 4571,
      "åŃŁ": 4572,
      "çĨŁå¥³": 4573,
      "æī®": 4574,
      "è¾½": 4575,
      "åĤ·": 4576,
      "éĿĴæĺ¥": 4577,
      "åıĳè¡Į": 4578,
      "é¢Ħæµĭ": 4579,
      "ç»ĳ": 4580,
      "2010": 4581,
      "ä¸ĵé¡¹": 4582,
      "éķ¿çļĦ": 4583,
      "æĹłå¥Ĺ": 4584,
      "æĪĸè®¸": 4585,
      "æĿŃå·ŀ": 4586,
      "æĺ¯æľī": 4587,
      "å®¶äºº": 4588,
      "åŃ¦ä¼ļ": 4589,
      "å¸¸è§ģ": 4590,
      "400": 4591,
      "å¯«": 4592,
      "æķ´çĲĨ": 4593,
      "ãĤĬ": 4594,
      "ä¿¡å¿ĥ": 4595,
      "ä¸ĩäºº": 4596,
      "è°ĥæķĻ": 4597,
      "çİ°éĩĳ": 4598,
      "æĸĩåŃĹ": 4599,
      "åİŁæĿ¥": 4600,
      "æĮ¡": 4601,
      "ä¸īçº§": 4602,
      "åĬłéĢŁ": 4603,
      "å¹³æĸ¹": 4604,
      "æĢģåº¦": 4605,
      "å¥´": 4606,
      "èĥ½éĩı": 4607,
      "æĪĲçĤº": 4608,
      "è¾Ī": 4609,
      "çĻĤ": 4610,
      "åį±éĻ©": 4611,
      "è¯¦æĥħ": 4612,
      "OS": 4613,
      "çļĦå¤ĸ": 4614,
      "ç»´ä¿®": 4615,
      "åħ¬åĽŃ": 4616,
      "ä½ıæĪ¿": 4617,
      "ä¹±ä¼¦": 4618,
      "ãĢģãĢĬ": 4619,
      "éĻ£": 4620,
      "å¯¹æŃ¤": 4621,
      "è§ĤçĤ¹": 4622,
      "å¼ĢæĪ·": 4623,
      "49": 4624,
      "ä¸ĵéĹ¨": 4625,
      "èĢģèĻİ": 4626,
      "é¢ĦæľŁ": 4627,
      "ä¾ĨçļĦ": 4628,
      "ç»ĺ": 4629,
      "è¿ĽæŃ¥": 4630,
      "åŁĥ": 4631,
      "çļĦæĥħåĨµä¸ĭ": 4632,
      "å¤§ç§Ģ": 4633,
      "ç³ķ": 4634,
      "é²į": 4635,
      "èµļéĴ±": 4636,
      "åħ±åĴĮ": 4637,
      "éĽ¶åĶ®": 4638,
      "ä¹Łå¾Ī": 4639,
      "éłĪ": 4640,
      "éĻ¸": 4641,
      "è¾ŀ": 4642,
      "ä¸Ģèĩ´": 4643,
      "å¯¹çĻ½": 4644,
      "æĬ¥åĲį": 4645,
      "é¡ºåĪ©": 4646,
      "èµ´": 4647,
      "èµģ": 4648,
      "åĿĬ": 4649,
      "46": 4650,
      "äºı": 4651,
      "åħĶ": 4652,
      "lo": 4653,
      "ä¹Ļ": 4654,
      "æ£ī": 4655,
      "ç¥¥": 4656,
      "å§¿åĬ¿": 4657,
      "æĬ¬": 4658,
      "æ¯ıä¸Ģ": 4659,
      "è¬Ľ": 4660,
      "ä¸»è¦ģæĺ¯": 4661,
      "é¤¨": 4662,
      "æ²³åįĹ": 4663,
      "åħĦå¼Ł": 4664,
      "ç§ĳçłĶ": 4665,
      "èµ°åĬ¿": 4666,
      "å¤§ä¼Ĺ": 4667,
      "æĽ´å¥½çļĦ": 4668,
      "å¼ºçļĦ": 4669,
      "æ¸Ľ": 4670,
      "æ°¸è¿ľ": 4671,
      "åĪĽå»º": 4672,
      "èģĮå·¥": 4673,
      "ç·¨": 4674,
      "èī¯å¥½": 4675,
      "éĢ¸": 4676,
      "æłĩé¢ĺ": 4677,
      "çĵ·": 4678,
      "å¥³å£«": 4679,
      "æľºåľº": 4680,
      "èģĶçĽŁ": 4681,
      "å¤§å¤ļæķ°": 4682,
      "åķ¥": 4683,
      "æĢĿèĢĥ": 4684,
      "éĽķ": 4685,
      "å®Įæķ´çīĪ": 4686,
      "çĽ¸äºĴ": 4687,
      "ä¸¤äºº": 4688,
      "çīµ": 4689,
      "åĽ´ç»ķ": 4690,
      "æŁ´": 4691,
      "ç¤¾ä¼ļä¸»ä¹ī": 4692,
      "æ·±åĮĸ": 4693,
      "éĤĢè¯·": 4694,
      "è¡¨æ¼Ķ": 4695,
      "æ»¨": 4696,
      "çī¹åĪ«æĺ¯": 4697,
      "çĽĹ": 4698,
      "åĪļåĪļ": 4699,
      "æ¯ķç«Ł": 4700,
      "ç»Ļä½ł": 4701,
      "ç¾İä¹³": 4702,
      "éĥ½åı¯ä»¥": 4703,
      "ä¾Ŀæį®": 4704,
      "æĹ¶æĹ¶å½©": 4705,
      "å¤¹": 4706,
      "å®ł": 4707,
      "åľ°çļĦ": 4708,
      "èŀº": 4709,
      "é¡§": 4710,
      "è¿ĺèĥ½": 4711,
      "èµ¤": 4712,
      "æĬķè³ĩ": 4713,
      "ãģĦ": 4714,
      "å°ºåº¦": 4715,
      "ä¸Ĭä¸ĭ": 4716,
      "åĽŀåºĶ": 4717,
      "å¤§åŃ¦çĶŁ": 4718,
      "æ¸ħæĻ°": 4719,
      "ç»ĦåĲĪ": 4720,
      "å¤§æ¦Ĥ": 4721,
      "ç¤¾äº¤": 4722,
      "æĢ»ç»Ł": 4723,
      "åĽ½åĬ¡éĻ¢": 4724,
      "ä¸Ĭåİ»": 4725,
      "ä¸īå¹´": 4726,
      "åľĭå®¶": 4727,
      "äºĮæĺ¯": 4728,
      "èħ¦": 4729,
      "èĸ¦": 4730,
      "çĶ·å¥³": 4731,
      "åļ´": 4732,
      "çļĦæĸ¹æ³ķ": 4733,
      "åĽĽä¸ª": 4734,
      "ä¸įå¤Ł": 4735,
      "ç¨Ģ": 4736,
      "æĪĸæĺ¯": 4737,
      "æıĲç¤º": 4738,
      "è¬Ŀ": 4739,
      "Ġä¸Ģ": 4740,
      "åĪĨä¸º": 4741,
      "åºĶå¯¹": 4742,
      "ç§Łèµģ": 4743,
      "AI": 4744,
      "Ġ10": 4745,
      "å»ł": 4746,
      "åĸľæ¬¢ä¸įè¦ģéĶĻè¿ĩ": 4747,
      "åħĥç´ł": 4748,
      "èĤ¡ä¸ľ": 4749,
      "ä¸Ģå®ļçļĦ": 4750,
      "çĻ½çĻľ": 4751,
      "æŁ¥è¯¢": 4752,
      "æ¸ħæ´ģ": 4753,
      "è®¿éĹ®": 4754,
      "å¯»æī¾": 4755,
      "68": 4756,
      "åĲĮæĦı": 4757,
      "è¿ĺåı¯ä»¥": 4758,
      "éĢ¼éĢ¼": 4759,
      "çļĦæīĭ": 4760,
      "æ¸¡": 4761,
      "åĸĺ": 4762,
      "ä¸įæľĥ": 4763,
      "çī¹æľĹ": 4764,
      "åįļå£«": 4765,
      "ub": 4766,
      "å°¸": 4767,
      "è¿Ļæ¬¾": 4768,
      "å¹¹": 4769,
      "åı£äº¤": 4770,
      "cc": 4771,
      "é«ĺç«¯": 4772,
      "é¢ľèī²": 4773,
      "åĭŁ": 4774,
      "ç¿ĺ": 4775,
      "å·¡è§Ĩ": 4776,
      "åĩłå¹´": 4777,
      "äºĴåĬ¨": 4778,
      "åħ¬è·¯": 4779,
      "ä¹Łæ²¡æľī": 4780,
      "--------": 4781,
      "äº§åĵģçļĦ": 4782,
      "é£ŀæľº": 4783,
      "åĿĲåľ¨": 4784,
      "å¤©åłĤ": 4785,
      "ç¤¾æľĥ": 4786,
      "çİ¯èĬĤ": 4787,
      "å¤ĸçļĦ": 4788,
      "çĻ¼çı¾": 4789,
      "se": 4790,
      "èĤ¿": 4791,
      "éĵĿ": 4792,
      "å®¢æľį": 4793,
      "ä»ĸè¯´": 4794,
      "æĶ¶èĹı": 4795,
      "èĤļ": 4796,
      "å§ľ": 4797,
      "æİ¨èĸ¦": 4798,
      "æĬ«": 4799,
      "èĬ³": 4800,
      "éĢļä¿¡": 4801,
      "å¼Ĺ": 4802,
      "åŁºå±Ĥ": 4803,
      "ç§°ä¸º": 4804,
      "çĸ¯çĭĤ": 4805,
      "è¡°": 4806,
      "å¬": 4807,
      "åİķ": 4808,
      "å·¥èµĦ": 4809,
      "åıĬåħ¶": 4810,
      "èµ·ä¾Ĩ": 4811,
      "è²¡": 4812,
      "ä¸ŃåĽ½çļĦ": 4813,
      "äºĭé¡¹": 4814,
      "çĤī": 4815,
      "åįµ": 4816,
      "éĩĩè´Ń": 4817,
      "å¯¹æīĭ": 4818,
      "æľ¬åľŁ": 4819,
      "èĲĦ": 4820,
      "å¤ĸæ±ĩ": 4821,
      "åı¯éĿł": 4822,
      "ä»İäºĭ": 4823,
      "æ²³åĮĹ": 4824,
      "åľĸçīĩ": 4825,
      "æĹ¥åŃĲ": 4826,
      "æ·±åº¦": 4827,
      "ä¸²": 4828,
      "ç´Ģ": 4829,
      "åħįè²»": 4830,
      "çī¹æľĹæĻ®": 4831,
      "åĳ¨æľŁ": 4832,
      "åĨĽäºĭ": 4833,
      "æĥ³æ³ķ": 4834,
      "å¼ķåıĳ": 4835,
      "æĹ¥æľŁ": 4836,
      "åľĭéļĽ": 4837,
      "çĹĩçĬ¶": 4838,
      "æ°ĳä¸»": 4839,
      "æĻ®éģį": 4840,
      "ç¹¼": 4841,
      "æĸ°åŀĭ": 4842,
      "åģļäºĨ": 4843,
      "åıĺæĪĲ": 4844,
      "çļĦä¸»è¦ģ": 4845,
      "èµ°äºĨ": 4846,
      "åľ¨è¿ĻéĩĮ": 4847,
      "æ³ª": 4848,
      "é®": 4849,
      "å®ŀåľ¨": 4850,
      "çļĦä¿¡æģ¯": 4851,
      "åķĨå®¶": 4852,
      "åħ§å®¹": 4853,
      "è½´": 4854,
      "ter": 4855,
      "åĵªä¸ª": 4856,
      "Â°": 4857,
      "éĹ¹": 4858,
      "ç³Ĭ": 4859,
      "è½¬åŀĭ": 4860,
      "æ¼Ĩ": 4861,
      "çĽ´åĪ°": 4862,
      "ç´¯è®¡": 4863,
      "åĽºå®ļ": 4864,
      "æ¬ł": 4865,
      "æľīåĪ©": 4866,
      "çĽ¤": 4867,
      "å¤ĸåĽ½": 4868,
      "ç¦®": 4869,
      "éĢĤåºĶ": 4870,
      "å°Ĩä¼ļ": 4871,
      "æĢ»ç»ıçĲĨ": 4872,
      "èĤł": 4873,
      "åĲĮäºĭ": 4874,
      "æĸ°åįİç¤¾": 4875,
      "å¸Ĥå§Ķ": 4876,
      "æ·±åĪ»": 4877,
      "èĽĩ": 4878,
      "çļĦäº§åĵģ": 4879,
      "å°±ç®Ĺ": 4880,
      "æĭĽçĶŁ": 4881,
      "çļĦåİŁåĽł": 4882,
      "æĺĨ": 4883,
      "é¡į": 4884,
      "éĮĦ": 4885,
      "å½¹": 4886,
      "å¥½å¥½": 4887,
      "èĬĿ": 4888,
      "ä¸¢": 4889,
      "æ®¿": 4890,
      "æĺ¯æĪĳ": 4891,
      "åłµ": 4892,
      "Ġf": 4893,
      "èħĶ": 4894,
      "ä¼¦çĲĨ": 4895,
      "çļĦä½ľçĶ¨": 4896,
      "ä¸ļç»©": 4897,
      "å¹³è¡¡": 4898,
      "åİ¦": 4899,
      "Ġ6": 4900,
      "å°ıç»Ħ": 4901,
      "ä¼ĳæģ¯": 4902,
      "æııè¿°": 4903,
      "å²©": 4904,
      "çĻ½çĻľé£İ": 4905,
      "è´¢äº§": 4906,
      "åĲķ": 4907,
      "æģ°": 4908,
      "æīĭæľºçīĪ": 4909,
      "ä¸įåľ¨": 4910,
      "çİ²": 4911,
      "éĿ¢åīį": 4912,
      "æĵİ": 4913,
      "å²Ĺä½į": 4914,
      "å¾Īæĺ¯è¯±æĥĳåĸľæ¬¢ä¸įè¦ģéĶĻè¿ĩ": 4915,
      "ä¿Ĥ": 4916,
      "èĢĮåľ¨": 4917,
      "çĸı": 4918,
      "éĶĢéĩı": 4919,
      "åģ¥èº«": 4920,
      "æĤ¦": 4921,
      "èĴ¸": 4922,
      "ç»Ĩèĥŀ": 4923,
      "æŃ¦åĻ¨": 4924,
      "ç¸£": 4925,
      "BA": 4926,
      "æ¬º": 4927,
      "ä¼Ĺå¤ļ": 4928,
      "ä¸īå¤§": 4929,
      "æĴ¤": 4930,
      "åĴ¬": 4931,
      "éĩĳé¢Ŀ": 4932,
      "èĤºçĤİ": 4933,
      "iv": 4934,
      "æĹ¥èµ·": 4935,
      "éĥ½å¸Ĥ": 4936,
      "æ¶¯": 4937,
      "åĵĪåĵĪ": 4938,
      "èĤĥ": 4939,
      "è¡¨æĥħ": 4940,
      "ip": 4941,
      "é©ļ": 4942,
      "åİŁæľ¬": 4943,
      "AV": 4944,
      "æĹ¥çĶµ": 4945,
      "å¥¹ä»¬": 4946,
      "åŀĤ": 4947,
      "çİ©æ³ķ": 4948,
      "çļĦåŁºç¡Ģ": 4949,
      "çĭ¬çī¹": 4950,
      "æķ¦": 4951,
      "èµ«": 4952,
      "æħĪ": 4953,
      "åĳµ": 4954,
      "å·¥åİĤ": 4955,
      "é»ĳèī²": 4956,
      "58": 4957,
      "å¹´ä»£": 4958,
      "æľīå¤ļ": 4959,
      "1080": 4960,
      "éļıæĹ¶": 4961,
      "åĵ¥åĵ¥": 4962,
      "çĶŁçĶ¢": 4963,
      "è¥¿å®ī": 4964,
      "åĵ²": 4965,
      "çĮ´": 4966,
      "å°Īæ¥Ń": 4967,
      "æıĲäº¤": 4968,
      "åłħ": 4969,
      "çļĦåĲĮæĹ¶": 4970,
      "ame": 4971,
      "ç»ĦæĪĲ": 4972,
      "æĢİä¹Īæł·": 4973,
      "èĳ¡èĲĦ": 4974,
      "åĽĬ": 4975,
      "è£ľ": 4976,
      "åĲŀ": 4977,
      "éĽ¾": 4978,
      "éŃļ": 4979,
      "ä¸įåģľ": 4980,
      "å¿ĥä¸Ń": 4981,
      "çĻ»è®°": 4982,
      "47": 4983,
      "çĪ¬": 4984,
      "å¦Ĥä¸ĭ": 4985,
      "æĸĩåŃ¦": 4986,
      "æĽĿåħī": 4987,
      "åĲ»": 4988,
      "ä¸įæĥ³": 4989,
      "éĥ¨éķ¿": 4990,
      "çļĦæ°´": 4991,
      "å¸¦æĿ¥çļĦ": 4992,
      "èĳ£äºĭéķ¿": 4993,
      "èµł": 4994,
      "åŃ¸çĶŁ": 4995,
      "éĢıæĺİ": 4996,
      "ç¦ģæŃ¢": 4997,
      "å®¶éĩĮ": 4998,
      "å¸½": 4999,
      "é«ĺè´¨éĩı": 5000,
      "è¯ŀ": 5001,
      "æĬĳ": 5002,
      "æµ¦": 5003,
      "if": 5004,
      "th": 5005,
      "åĳ³éģĵ": 5006,
      "æĬ¹": 5007,
      "åĤ²": 5008,
      "æ¹ĸåĮĹ": 5009,
      "æ¼Ķåĳĺ": 5010,
      "é¸£": 5011,
      "è¡Ĺéģĵ": 5012,
      "æİĪæĿĥ": 5013,
      "ĊĊ": 5014,
      "ä¹Łå°±": 5015,
      "è¯´è¯Ŀ": 5016,
      "æĥħåĨµä¸ĭ": 5017,
      "éĲµ": 5018,
      "åģļæ³ķ": 5019,
      "FC": 5020,
      "ä¹Łè®¸": 5021,
      "æŀĿ": 5022,
      "åīª": 5023,
      "æĭĽèģĺ": 5024,
      "æĸ°æĹ¶ä»£": 5025,
      "æĸ¹çļĦ": 5026,
      "æºª": 5027,
      "ä½İäºİ": 5028,
      "åľ¨ä¸Ģ": 5029,
      "erv": 5030,
      "å¾Īå¤ļäºº": 5031,
      "åĤħ": 5032,
      "çŃĶæ¡Ī": 5033,
      "çī§": 5034,
      "ç´§å¼ł": 5035,
      "å¯ĵ": 5036,
      "é¢Ħç®Ĺ": 5037,
      "çĨŁæĤī": 5038,
      "éģ¥": 5039,
      "æĢ»è£ģ": 5040,
      "åĲ¬åĪ°": 5041,
      "ä½ľåĩº": 5042,
      "å¤©æ°Ķ": 5043,
      "æ¾¡": 5044,
      ",âĢĿ": 5045,
      "å¹´é¾Ħ": 5046,
      "åĲĪæł¼": 5047,
      "å±ķçİ°": 5048,
      "æİ¥è¿ĳ": 5049,
      "èĩ´åĬĽ": 5050,
      "çºªå§Ķ": 5051,
      "åħģè®¸": 5052,
      "åĽŀæĿ¥": 5053,
      "æ»¤": 5054,
      "éĤĦæľī": 5055,
      "éľį": 5056,
      "ä¸¤å¹´": 5057,
      "åł¡": 5058,
      "åħ³éĶ®è¯į": 5059,
      "çĻ½èī²": 5060,
      "åĤ¬": 5061,
      "æĥħç»ª": 5062,
      "åŁºåĽł": 5063,
      "åĳ¼åĲ¸": 5064,
      "ç¬¬äºĶ": 5065,
      "åįıè°ĥ": 5066,
      "åĮ¹": 5067,
      "å½ĵä¸Ń": 5068,
      "æĻ¯åĮº": 5069,
      "èİ²": 5070,
      "è¿ĩçļĦ": 5071,
      "äºĭåĬ¡": 5072,
      "å¿ĹæĦ¿": 5073,
      "äººåĬĽ": 5074,
      "åĨ³çŃĸ": 5075,
      "å¥ĳ": 5076,
      "åĢĨ": 5077,
      "éħįå¥Ĺ": 5078,
      "æ³³": 5079,
      "æīĭç»Ń": 5080,
      "éĵľ": 5081,
      "åįģåħ«": 5082,
      "æĬĬæı¡": 5083,
      "æĪĳåĴĮ": 5084,
      "åĽŀæĶ¶": 5085,
      "æ³¨éĩį": 5086,
      "æµħ": 5087,
      "åĲĦä¸ª": 5088,
      "çĬ¬": 5089,
      "åı¸æľº": 5090,
      "æµģåĬ¨": 5091,
      "æŀĦå»º": 5092,
      "è§£åĨ³æĸ¹æ¡Ī": 5093,
      "ä¸»ä½ĵ": 5094,
      "ä»¶äºĭ": 5095,
      "åĬ«": 5096,
      "èµĭ": 5097,
      "çŁ©": 5098,
      "èĲ§": 5099,
      "è®¸åı¯": 5100,
      "æīĭæ¸¸": 5101,
      "ä¹¡æĿĳ": 5102,
      "åĩºå¸Ń": 5103,
      "æ¯Ķè¼ĥ": 5104,
      "æ¸ħçº¯": 5105,
      "çº·çº·": 5106,
      "åĴ±ä»¬": 5107,
      "æ¨ĵ": 5108,
      "æİĺ": 5109,
      "ä¹ĭä¸ĭ": 5110,
      "éĥ¨çļĦ": 5111,
      "æĵĶ": 5112,
      "åį³å°Ĩ": 5113,
      "åħ¨æĸĩ": 5114,
      "um": 5115,
      "åľ¨ç·ļ": 5116,
      "çº¤": 5117,
      "å¾Īå¥½çļĦ": 5118,
      "å»ºè¨Ń": 5119,
      "ç²ĺ": 5120,
      "éĽĸçĦ¶": 5121,
      "åľ¨äºİ": 5122,
      "çĺ¦": 5123,
      "æĿĥçĽĬ": 5124,
      "åĳĨ": 5125,
      "éłħçĽ®": 5126,
      "éĵģè·¯": 5127,
      "åıĳåĬ¨": 5128,
      "çŃīæĸ¹éĿ¢": 5129,
      "ä¾¿åĪ©": 5130,
      "èĢ¶": 5131,
      "å¿Į": 5132,
      "éĺģ": 5133,
      "ä½¿åĳ½": 5134,
      "æķ´æĶ¹": 5135,
      "è´Ńçī©": 5136,
      "èĩĤ": 5137,
      "ç²¾éĢī": 5138,
      "çĪ±çļĦ": 5139,
      "éĤ£éĩĮ": 5140,
      "èĩ³äºİ": 5141,
      "æĢ»ä½ĵ": 5142,
      "ä¸°å¯ĮçļĦ": 5143,
      "åħ¨ä½ĵ": 5144,
      "æľĢä½İ": 5145,
      "2011": 5146,
      "çĹķ": 5147,
      "ED": 5148,
      "è¿Ļä½į": 5149,
      "é©°": 5150,
      "è¡¨æĺİ": 5151,
      "Ġw": 5152,
      "çļĦä¸Ń": 5153,
      "åħ¨çľģ": 5154,
      "äººæķ°": 5155,
      "å§»": 5156,
      "é«®": 5157,
      "æĪĺäºī": 5158,
      "åħ¬äº¤": 5159,
      "æł·åŃĲ": 5160,
      "èıĬ": 5161,
      "ä½ıäºĨ": 5162,
      "åı¯èĥ½æĺ¯": 5163,
      "ç´łè´¨": 5164,
      "åı¸æ³ķ": 5165,
      "æĿĥåĪ©": 5166,
      "la": 5167,
      "çĽ£": 5168,
      "èĢĥçĶŁ": 5169,
      "çľ¼éķľ": 5170,
      "çĶŁæ´»ä¸Ń": 5171,
      "çħ®": 5172,
      "åįİä¸º": 5173,
      "è¿ĳå¹´æĿ¥": 5174,
      "éĺ³åħī": 5175,
      "åĴª": 5176,
      "ç©ºè°ĥ": 5177,
      "å©·": 5178,
      "èĪĮ": 5179,
      "èĢĥæł¸": 5180,
      "è¯ķéªĮ": 5181,
      "çĽĳæµĭ": 5182,
      "ç²īå«©": 5183,
      "çįİ": 5184,
      "ĠK": 5185,
      "èª²": 5186,
      "æĬ¤å£«": 5187,
      "ä¼¤å®³": 5188,
      "çĴ°å¢ĥ": 5189,
      "å°ıå¿ĥ": 5190,
      "åıī": 5191,
      "å¦®": 5192,
      "éĢļéģĵ": 5193,
      "åĦĦ": 5194,
      "å°Ŀè¯ķ": 5195,
      "æľ¬åľ°": 5196,
      "èĭį": 5197,
      "è®¢åįķ": 5198,
      "æº¶": 5199,
      "çĮİ": 5200,
      "åĩºæĿ¥çļĦ": 5201,
      "èī°": 5202,
      "å¾ĭå¸Ī": 5203,
      "ä¸ĵä¸ļçļĦ": 5204,
      "æ··åĲĪ": 5205,
      "è¿ħéĽ·": 5206,
      "600": 5207,
      "æ¶Į": 5208,
      "çī©åĵģ": 5209,
      "æ¡Ĥ": 5210,
      "èĩ³ä»Ĭ": 5211,
      "åĩºè¡Į": 5212,
      "è£ħé¥°": 5213,
      "è¯´çļĦ": 5214,
      "æ¯ıæĹ¥": 5215,
      "ew": 5216,
      "åĩºçı¾": 5217,
      "æīĭæ©Ł": 5218,
      "åĩºç§Ł": 5219,
      "è»Ł": 5220,
      "èĶ¬": 5221,
      "å£³": 5222,
      "åı¥è¯Ŀ": 5223,
      "sh": 5224,
      "å¿«ä¸ī": 5225,
      "å®¢æĪ·ç«¯": 5226,
      "ç§ĺä¹¦": 5227,
      "ä¸ĭè·Į": 5228,
      "å´ĩ": 5229,
      "çľŁæŃ£çļĦ": 5230,
      "åĺĽ": 5231,
      "æĢĸ": 5232,
      "å±ħä½ı": 5233,
      "äººç¾¤": 5234,
      "å·¨å¤§": 5235,
      "å®ŀéĻħä¸Ĭ": 5236,
      "åĬį": 5237,
      "ĠV": 5238,
      "ä»°": 5239,
      "è¨Ĥ": 5240,
      "èį¯çī©": 5241,
      "AR": 5242,
      "çĻ¾åĪĨ": 5243,
      "ml": 5244,
      "èħ³": 5245,
      "____": 5246,
      "çĶŁåŃĺ": 5247,
      "æ¸´": 5248,
      "è®¤è¯ģ": 5249,
      "è¡¥åħħ": 5250,
      "è¨ŃåĤĻ": 5251,
      "ä¸ĢæĿ¡": 5252,
      "æĭ¨": 5253,
      "æĶ¾å¼ĥ": 5254,
      "æĪĳä¹Ł": 5255,
      "ç©·": 5256,
      "æĪĲå°±": 5257,
      "æĢ¨": 5258,
      "æŃ¤æĹ¶": 5259,
      "ç¤¾ä¿Ŀ": 5260,
      "éĿŀæ³ķ": 5261,
      "çĸ«èĭĹ": 5262,
      "çĶ¨åĵģ": 5263,
      "ç¡ķ": 5264,
      "çĬ¹": 5265,
      "é¢ĨåħĪ": 5266,
      "éĬĢè¡Į": 5267,
      "åıĸæ¶Ī": 5268,
      "ä»ĸäºº": 5269,
      "åĪ¤æĸŃ": 5270,
      "éħ±": 5271,
      "éĢĻæĺ¯": 5272,
      "è°ĥçłĶ": 5273,
      "ä¸įåıĬ": 5274,
      "å¾Īå¤§çļĦ": 5275,
      "è¿ĺä¼ļ": 5276,
      "éŃı": 5277,
      "èĭ±æĸĩ": 5278,
      "nd": 5279,
      "ç©¿çĿĢ": 5280,
      "42": 5281,
      "ä¸ºæĤ¨": 5282,
      "èģĸ": 5283,
      "ç¢ĳ": 5284,
      "æĹłçłģ": 5285,
      "åĽŀå¤į": 5286,
      "è¼¸": 5287,
      "æĺĤ": 5288,
      "äººåĵ¡": 5289,
      "å¼¯": 5290,
      "èķī": 5291,
      "76": 5292,
      "åĴĮå¹³": 5293,
      "éĻµ": 5294,
      "çĲĨçĶ±": 5295,
      "éĢļè®¯": 5296,
      "è®©æĪĳä»¬": 5297,
      "ä¸įå¦Ĥ": 5298,
      "éĻĮ": 5299,
      "çĲ³": 5300,
      "ä¾¯": 5301,
      "æ°§åĮĸ": 5302,
      "åĲĪéĢĤ": 5303,
      "èľĤ": 5304,
      "Ġ8": 5305,
      "çļĦæľĭåıĭ": 5306,
      "çŁĽ": 5307,
      "ob": 5308,
      "æĺ¯çĶ±": 5309,
      "åĩºåı°": 5310,
      "é¼ł": 5311,
      "é©¬ä¸Ĭ": 5312,
      "èĺŃ": 5313,
      "æ¿ĢçĥĪ": 5314,
      "çŀ¬éĹ´": 5315,
      "åįģä¸ī": 5316,
      "æĭĵå±ķ": 5317,
      "ĠãĢĲ": 5318,
      "éĿľ": 5319,
      "åĮ»èį¯": 5320,
      "ç¢§": 5321,
      "å©¦": 5322,
      "æıī": 5323,
      "æĭħä»»": 5324,
      "PPV": 5325,
      "çĶŁæĦı": 5326,
      "éĥģ": 5327,
      "2008": 5328,
      "ind": 5329,
      "çļĦè¦ģæ±Ĥ": 5330,
      "å·¥åķĨ": 5331,
      "åħ¨å¸Ĥ": 5332,
      "ä¾¿å®ľ": 5333,
      "çĥŃéĹ¨": 5334,
      "åĹ¯": 5335,
      "æĺ¯æĮĩ": 5336,
      "åĨ»": 5337,
      "åĽ½å¤ĸ": 5338,
      "åĢ¡": 5339,
      "ç½ĳé¡µ": 5340,
      "çłĤ": 5341,
      "æīĵåĩ»": 5342,
      "ç¿Ķ": 5343,
      "ç»ĨèĬĤ": 5344,
      "èĩ£": 5345,
      "é¢ĸ": 5346,
      "ç§įåŃĲ": 5347,
      "Ġwww": 5348,
      "çļĦæķħäºĭ": 5349,
      "çĽĨ": 5350,
      "ig": 5351,
      "ç¾ŀ": 5352,
      "ä¿¡åı·": 5353,
      "ak": 5354,
      "åĪ¶æľį": 5355,
      "æĤ¬": 5356,
      "çºªå¾ĭ": 5357,
      "é¡µéĿ¢": 5358,
      "ä¸įå¤ļ": 5359,
      "å¥ĸåĬ±": 5360,
      "Ġæĸ°": 5361,
      "éĢĬ": 5362,
      "åĲįåįķ": 5363,
      "è³£": 5364,
      "è«ĩ": 5365,
      "æĻĴ": 5366,
      "åħ¨éĽĨ": 5367,
      "æģ¨": 5368,
      "ãĢĭãĢĤ": 5369,
      "æłĩå¿Ĺ": 5370,
      "æ¶Īå¤±": 5371,
      "å¼Ģå¿ĥ": 5372,
      "åĪĽä½ľ": 5373,
      "éłĤ": 5374,
      "ation": 5375,
      "å¯¹å¤ĸ": 5376,
      "èİİ": 5377,
      "åįģä¹Ŀ": 5378,
      "æĺ¯ä¸Ģæ¬¾": 5379,
      "æĽ´æľī": 5380,
      "è®°å¾Ĺ": 5381,
      "å¼ķæĵİ": 5382,
      "ç»´æĮģ": 5383,
      "%;": 5384,
      "æĪĲäº¤": 5385,
      "ç©©": 5386,
      "å¤±è´¥": 5387,
      "ãģ§": 5388,
      "çĭĲ": 5389,
      "éºµ": 5390,
      "é®®": 5391,
      "ä¾Ľç»Ļ": 5392,
      "é¢Ħéĺ²": 5393,
      "æģĲæĢĸ": 5394,
      "çļĦåľ°": 5395,
      "å¹´åºķ": 5396,
      "ce": 5397,
      "è®°å¿Ĩ": 5398,
      "åĪĽæĦı": 5399,
      "çº¢èī²": 5400,
      "äºĨä¸ĢäºĽ": 5401,
      "èĩ¨": 5402,
      "ä½łåı¯ä»¥": 5403,
      "çľĭè§ģ": 5404,
      "æĪ·å¤ĸ": 5405,
      "æ§½": 5406,
      "è¶³å¤Ł": 5407,
      "è·ĳçĭĹ": 5408,
      "åįļå½©": 5409,
      "ç¬¬ä¸Ģä¸ª": 5410,
      "æ¯ıä¸Ģä¸ª": 5411,
      "ç§ģæĭį": 5412,
      "äºĤ": 5413,
      "é¥±": 5414,
      "è¡¥è´´": 5415,
      "net": 5416,
      "æī¿è¯º": 5417,
      "å®¡æł¸": 5418,
      "åĮ»åŃ¦": 5419,
      "å¯¼èĪª": 5420,
      "éĭ¼": 5421,
      "èĤ¡æĿĥ": 5422,
      "èªįçĤº": 5423,
      "å¤§å¤§": 5424,
      "åħ¬çĽĬ": 5425,
      "å®ļæľŁ": 5426,
      "è¨ĵ": 5427,
      "XX": 5428,
      "å®®": 5429,
      "åĪ«çļĦ": 5430,
      "æĶ¯åĩº": 5431,
      "ĠæĪĳ": 5432,
      "éģ®": 5433,
      "èģĶèµĽ": 5434,
      "åĨľæ°ĳ": 5435,
      "æī¹åĩĨ": 5436,
      "èĩªæ²»": 5437,
      "2023": 5438,
      "éłĨ": 5439,
      "å»³": 5440,
      "åĸľæŃ¡": 5441,
      "ç¼ºä¹ı": 5442,
      "é¥¼": 5443,
      "56": 5444,
      "åĮĸåŃ¦": 5445,
      "å¯Ĥ": 5446,
      "è¼ª": 5447,
      "åª³": 5448,
      "éģĬæĪ²": 5449,
      "Ġ7": 5450,
      "æĶ¶è´Ń": 5451,
      "å¤ªå¤ļ": 5452,
      "çļĦä¸Ģç§į": 5453,
      "è´¢ç»ı": 5454,
      "åħ¨åĬĽ": 5455,
      "ä½Ĩåľ¨": 5456,
      "å½¢åĬ¿": 5457,
      "è¦ºå¾Ĺ": 5458,
      "ĠO": 5459,
      "ç¾İé£Ł": 5460,
      "å®īå¾½": 5461,
      "ãĢĭ(": 5462,
      "åŃĲä¸Ĭ": 5463,
      "åĿĳ": 5464,
      "çĸ²": 5465,
      "è¾¨": 5466,
      "éĺ¿éĩĮ": 5467,
      "ç»ĵå©ļ": 5468,
      "æ²Ļåıĳ": 5469,
      "èĪĴæľį": 5470,
      "çļĦä¸ĢäºĽ": 5471,
      "é¤Ĳåİħ": 5472,
      "æĥ¨": 5473,
      "å©´åĦ¿": 5474,
      "çļĦåĨħå®¹": 5475,
      "åŃ¦æľ¯": 5476,
      "æķĻç»ĥ": 5477,
      "æĺ¨å¤©": 5478,
      "æľºåĻ¨äºº": 5479,
      "èĻĲ": 5480,
      "ä¸Ńåĩº": 5481,
      "å²³": 5482,
      "çĻ¾å§ĵ": 5483,
      "åĪĩå®ŀ": 5484,
      "çĪĨæĵį": 5485,
      "art": 5486,
      "èĽĭçĻ½": 5487,
      "ib": 5488,
      "æ³µ": 5489,
      "æŃĲ": 5490,
      "åĲĮæŃ¥": 5491,
      "æ³ķè§Ħ": 5492,
      "å®¶åħ·": 5493,
      "èµĽè½¦": 5494,
      "ä¸įæķ¢": 5495,
      "è®¾ç«ĭ": 5496,
      "é¡¾å®¢": 5497,
      "æĺŁæľŁ": 5498,
      "æī§æ³ķ": 5499,
      "ä¸įåĩº": 5500,
      "åľ°ä¸Ĭ": 5501,
      "å¼ĢæĪ¿": 5502,
      "æīĢå¾Ĺ": 5503,
      "åŁĭ": 5504,
      "éļ»": 5505,
      "æİĴæĶ¾": 5506,
      "çļĦä¸ľè¥¿": 5507,
      "åŁİä¹¡": 5508,
      "éĢłåŀĭ": 5509,
      "é¹¿": 5510,
      "æĪĲå¹´": 5511,
      "å±¥è¡Į": 5512,
      "éŁµ": 5513,
      "å©ļå§»": 5514,
      "çļĦéľĢæ±Ĥ": 5515,
      "ä¸Ģæ¨£": 5516,
      "ä¼ļè®¡": 5517,
      "èĢĮä¸įæĺ¯": 5518,
      "ãĢĭãĢģãĢĬ": 5519,
      "è´¾": 5520,
      "ä¸ªæĢ§": 5521,
      "é¦Ī": 5522,
      "éĽĨä½ĵ": 5523,
      "åĩºçĶŁ": 5524,
      "ä¸¤ç§į": 5525,
      "æĽ´ä¸º": 5526,
      "è½¬ç§»": 5527,
      "åĬ£": 5528,
      "å§Ĳå¦¹": 5529,
      "æ¢¦æĥ³": 5530,
      "æ°´æŀľ": 5531,
      "è²¼": 5532,
      "ä¹īåĬ¡": 5533,
      "èºº": 5534,
      "èĻķçĲĨ": 5535,
      "èħ¾è®¯": 5536,
      "éºĹ": 5537,
      "åĲ¸æĶ¶": 5538,
      "æīĳ": 5539,
      "å¯¼æ¼Ķ": 5540,
      "ä¹ĭè·¯": 5541,
      "æŁı": 5542,
      "äººå®¶": 5543,
      "æĮĩæĮ¥": 5544,
      "iP": 5545,
      "æĢİéº¼": 5546,
      "æŁĲäºĽ": 5547,
      "åħ±äº§": 5548,
      "å¹³å®ī": 5549,
      "çī¹å¾ģ": 5550,
      "åĲĮä¸Ģ": 5551,
      "å¹³æĹ¶": 5552,
      "éĢĻä¸Ģ": 5553,
      "æĢ»ä¹¦è®°": 5554,
      "ck": 5555,
      "çī©çļĦ": 5556,
      "çĹħä¾ĭ": 5557,
      "amp": 5558,
      "èĪĴéĢĤ": 5559,
      "43": 5560,
      "çłĸ": 5561,
      "å±ħçĦ¶": 5562,
      "å¹´åīį": 5563,
      "çī¹åĪ¥": 5564,
      "çľģå§Ķ": 5565,
      "çĽĳæİ§": 5566,
      "é¤Ĳé¥®": 5567,
      "è®²è¯Ŀ": 5568,
      "åħ±åĴĮåĽ½": 5569,
      "å¤¢": 5570,
      "åľ¨è¿Ļä¸ª": 5571,
      "å¦ĥ": 5572,
      "çĤ®åıĭ": 5573,
      "ä¸ŃéĹ´": 5574,
      "ä¿±ä¹Ĳ": 5575,
      "è°¨": 5576,
      "æ¨¡åŀĭ": 5577,
      "é½¿": 5578,
      "åĲīæŀĹ": 5579,
      "å¹³æĸ¹ç±³": 5580,
      "æĺ¯æľĢ": 5581,
      "éĶ»": 5582,
      "çĽ¸åħ³çļĦ": 5583,
      "æĭĴç»Ŀ": 5584,
      "åĤ»": 5585,
      "ç·´": 5586,
      "é¦Ļèķī": 5587,
      "æ¶īå«Į": 5588,
      "çĪ¹": 5589,
      "ç»ĻäºĨ": 5590,
      "äººå·¥æĻºèĥ½": 5591,
      "é«ĺèĢĥ": 5592,
      "å¹¿åľº": 5593,
      "ç¦ıå»º": 5594,
      "æµ·åįĹ": 5595,
      "æĥħä¾£": 5596,
      "ä¸ĵé¢ĺ": 5597,
      "åĳ¨åĽ´": 5598,
      "çĥŃæĥħ": 5599,
      "æ¸ħæ´Ĺ": 5600,
      "åį°è±¡": 5601,
      "æĺ¯åĽłä¸º": 5602,
      "åį§": 5603,
      "åĭĥ": 5604,
      "å½»åºķ": 5605,
      "å¯©": 5606,
      "è½¦çļĦ": 5607,
      "èª°": 5608,
      "åĨ³èµĽ": 5609,
      "é¥®é£Ł": 5610,
      "åįģä¸Ģ": 5611,
      "res": 5612,
      "åŁ·": 5613,
      "çľĭèµ·æĿ¥": 5614,
      "å®¤åĨħ": 5615,
      "çĩ¥": 5616,
      "pk": 5617,
      "åŃ¦ç§ĳ": 5618,
      "å½ĵå¤©": 5619,
      "çĶ»éĿ¢": 5620,
      "å¤ķ": 5621,
      "qu": 5622,
      "åĪ©äºļ": 5623,
      "çī©ä¸ļ": 5624,
      "æľīæ²¡æľī": 5625,
      "æµ·æ´ĭ": 5626,
      "æĺ¥èĬĤ": 5627,
      "å®¾é¦Ĩ": 5628,
      "Ġä¸Ń": 5629,
      "ä¸Ģåľº": 5630,
      "ä¸įèµ·": 5631,
      "æĮ¤": 5632,
      "æĻ´": 5633,
      "åĳ¨å¹´": 5634,
      "å¤§åŃ¸": 5635,
      "åºĵåŃĺ": 5636,
      "ä¸įéĶĻçļĦ": 5637,
      "86": 5638,
      "èł": 5639,
      "åħĳ": 5640,
      "ä¸»è§Ĵ": 5641,
      "è±Ĳ": 5642,
      "èĬĤèĥ½": 5643,
      "çĳľ": 5644,
      "èĬĴ": 5645,
      "æ±Łè¥¿": 5646,
      "çĸ«æĥħéĺ²æİ§": 5647,
      "å½°": 5648,
      "åĪĨåŃĲ": 5649,
      "çĭ±": 5650,
      "æį®äºĨè§£": 5651,
      "åĩłå¤©": 5652,
      "åįĥä¸ĩ": 5653,
      "èį¯åĵģ": 5654,
      "éĩįçļĦ": 5655,
      "èĲ½åľ°": 5656,
      "ç¹Ķ": 5657,
      "åı¹": 5658,
      "éĥ½æ²¡æľī": 5659,
      "ä¸ĸçķĮä¸Ĭ": 5660,
      "éĶĲ": 5661,
      "å¼ºçĥĪ": 5662,
      "åŃ©åŃĲçļĦ": 5663,
      "é¼İ": 5664,
      "ä¸ĬçıŃ": 5665,
      "å°ıåŃ¦": 5666,
      "è¿ĺæ²¡": 5667,
      "ãģ«": 5668,
      "è·ŁçĿĢ": 5669,
      "è¾ĵåħ¥": 5670,
      "éĢ»": 5671,
      "è´¢å¯Į": 5672,
      "æĩīè©²": 5673,
      "è£ı": 5674,
      "ç®Ģä»ĭ": 5675,
      "å¸¸å¸¸": 5676,
      "è´º": 5677,
      "ç¡ħ": 5678,
      "ä¸įä¹ħ": 5679,
      "é«ĺæīĭ": 5680,
      "éĿ¢åĲĳ": 5681,
      "éĹ®é¢ĺçļĦ": 5682,
      "ä¸Ĭä¼ł": 5683,
      "åıĳåĩº": 5684,
      "åıĳè¨Ģ": 5685,
      "çİ°åľ¨çļĦ": 5686,
      "ä¸»ç®¡": 5687,
      "åħ¶å¯¦": 5688,
      "æĢĿç»´": 5689,
      "51": 5690,
      "å¼ºå¤§": 5691,
      "èĥľåĪ©": 5692,
      "æ£®æŀĹ": 5693,
      "åŃ¸ç¿Ĵ": 5694,
      "ä¼ĳéĹ²": 5695,
      "èī²å½©": 5696,
      "åĨ²åĩ»": 5697,
      "èĥģ": 5698,
      "éľ²åĩº": 5699,
      "ov": 5700,
      "éĥ½å¾Ī": 5701,
      "åŃĹå¹ķ": 5702,
      "Ġd": 5703,
      "åħ¬å¹³": 5704,
      "2009": 5705,
      "ä¸įå¤ª": 5706,
      "çŁ³æ²¹": 5707,
      "äºĨä¸ª": 5708,
      "è¶ģ": 5709,
      "è¯´æĺ¯": 5710,
      "åŃ¦çĶŁçļĦ": 5711,
      "è´¦æĪ·": 5712,
      "æĬķè¯ī": 5713,
      "èµ°åĲĳ": 5714,
      "ä½¿çĶ¨çļĦ": 5715,
      "å±Ĥæ¬¡": 5716,
      "å·¨å¤§çļĦ": 5717,
      "éĥ¨ä»¶": 5718,
      "ä¿¡ä»»": 5719,
      "çĥĤ": 5720,
      "çĶ·æĢ§": 5721,
      "âĺħ": 5722,
      "åºŀ": 5723,
      "å¼ºå¥¸": 5724,
      "å³¶": 5725,
      "æī¶è´«": 5726,
      "åľ¨äºĨ": 5727,
      "çĦĬ": 5728,
      "æľĪçļĦ": 5729,
      "äºĳåįĹ": 5730,
      "è½°": 5731,
      "ook": 5732,
      "èĢģèĻİæľº": 5733,
      "ãĢĭãĢĬ": 5734,
      "åĲĮæ¯Ķå¢ŀéķ¿": 5735,
      "å°½éĩı": 5736,
      "é¹ı": 5737,
      "æĸ°ä¸Ģ": 5738,
      "æĿı": 5739,
      "çĪĨä¹³": 5740,
      "éĤ®ç®±": 5741,
      "æŃ¸": 5742,
      "éĻ°": 5743,
      "éĸ±": 5744,
      "å¹²åĩĢ": 5745,
      "ç¢¼": 5746,
      "æıĲä¾ĽçļĦ": 5747,
      "yright": 5748,
      "Â©": 5749,
      "åĬ¨çĶ»": 5750,
      "è§Ħå¾ĭ": 5751,
      "åĥ¹æł¼": 5752,
      "Ch": 5753,
      "æµ¸": 5754,
      "èĢģå¸«": 5755,
      "åı°åĮĹ": 5756,
      "å¹¶åľ¨": 5757,
      "å®¡æŁ¥": 5758,
      "åħ©åĢĭ": 5759,
      "æĬĽ": 5760,
      "å¤ļåħĥ": 5761,
      "åłª": 5762,
      "åĲ¦åĪĻ": 5763,
      "ä¸°æ»¡": 5764,
      "å¼Ĥå¸¸": 5765,
      "ä¸įå¾Ĺä¸į": 5766,
      "æĺ¯è¦ģ": 5767,
      "æĹłéĻĲ": 5768,
      "æĵģ": 5769,
      "åħĪåĲİ": 5770,
      "ãĥ«": 5771,
      "è´«åĽ°": 5772,
      "èĩ´åĬĽäºİ": 5773,
      "äºĨä¸Ģä¸ĭ": 5774,
      "æ»ħ": 5775,
      "ao": 5776,
      "çĲª": 5777,
      "ç¾İå®¹": 5778,
      "è³ĩæĸĻ": 5779,
      "å°ºå¯¸": 5780,
      "æ£ļ": 5781,
      "ç¢Ĺ": 5782,
      "èĻļæĭŁ": 5783,
      "å±Ī": 5784,
      "çĻ¾å®¶": 5785,
      "ä¹ħä¹ħ": 5786,
      "æĹ¥åľ¨": 5787,
      "ä¹ĭå¾Į": 5788,
      "ä¿Ŀåģ¥": 5789,
      "éĦī": 5790,
      "èĬ¬": 5791,
      "æĶ»çķ¥": 5792,
      "è¾½å®ģ": 5793,
      "åħ¬ä¸»": 5794,
      "å¾ĹåĪ°äºĨ": 5795,
      "åĻ¨çļĦ": 5796,
      "èŃ¦å¯Ł": 5797,
      ">>": 5798,
      "é¢ģ": 5799,
      "ä»ªå¼ı": 5800,
      "87": 5801,
      "å®´": 5802,
      "æĹ¥çļĦ": 5803,
      "åįłæ¯Ķ": 5804,
      "æīĭæĮĩ": 5805,
      "ä¸ľåĮĹ": 5806,
      "è²´": 5807,
      "åĪ°è¾¾": 5808,
      "åĳ¨è¾¹": 5809,
      "æĶĿ": 5810,
      "é£²": 5811,
      "äºĮæīĭ": 5812,
      "è¡Įæĥħ": 5813,
      "æľ¬ç§ĳ": 5814,
      "èħº": 5815,
      "èĭĹæĿ¡": 5816,
      "æĪĲåĪĨ": 5817,
      "è®©ä»ĸ": 5818,
      "è¯ķçĤ¹": 5819,
      "åħ¨ç¨ĭ": 5820,
      "å½ĵå¹´": 5821,
      "æĶ¿åįı": 5822,
      "57": 5823,
      "ä»ĩ": 5824,
      "åİŁçīĪ": 5825,
      "åĬ©åĬĽ": 5826,
      "52": 5827,
      "æľīè¶£": 5828,
      "éĺĶ": 5829,
      "é¦¨": 5830,
      "å±ıå¹ķ": 5831,
      "ail": 5832,
      "å¤ĸäº¤": 5833,
      "åĭĿ": 5834,
      "åħ±æľī": 5835,
      "åıįèĢĮ": 5836,
      "ç¾¤ä½ĵ": 5837,
      "æķ°æį®æĺ¾ç¤º": 5838,
      "èĦĨ": 5839,
      "èº²": 5840,
      "ç¥Ń": 5841,
      "éª¤": 5842,
      "æļ´åĬĽ": 5843,
      "æĸľ": 5844,
      "è¿ĺæ²¡æľī": 5845,
      "æ·ĭ": 5846,
      "ãģŁ": 5847,
      "å¹¿è¥¿": 5848,
      "çºªå¿µ": 5849,
      "åį±æľº": 5850,
      "å§ĳå¨ĺ": 5851,
      "å¤§å°ºåº¦": 5852,
      "å¿ĥæĥħ": 5853,
      "120": 5854,
      "çŁĽçĽ¾": 5855,
      "Ġc": 5856,
      "è¯Ī": 5857,
      "ä»¥ä¸ĬçļĦ": 5858,
      "çľĭçļĦ": 5859,
      "å¢ŀéĢŁ": 5860,
      "çķĻä¸ĭ": 5861,
      "è¿Ŀè§Ħ": 5862,
      "æĹ¢çĦ¶": 5863,
      "çķªåı·": 5864,
      "æĸ¹ä½į": 5865,
      "é£ĺ": 5866,
      "åĽ¾ä¹¦": 5867,
      "çĶ¢æ¥Ń": 5868,
      "æĹłäººæľº": 5869,
      "å¤ļäºº": 5870,
      "æĹ¥éŁ©": 5871,
      "åıł": 5872,
      "æļĳ": 5873,
      "çº¦çĤ®": 5874,
      "èĸĩ": 5875,
      "ul": 5876,
      "åħ¶æ¬¡": 5877,
      "èĨı": 5878,
      "åľ°çĤ¹": 5879,
      "å¤ĸåĽ´": 5880,
      "éĢĤå½ĵ": 5881,
      "çĲĨè´¢": 5882,
      "ç§ģäºº": 5883,
      "è¡Įæ¥Ń": 5884,
      "åľ°ä¸ĭ": 5885,
      "æłĩçŃ¾": 5886,
      "çł´åĿı": 5887,
      "ç§ĺå¯Ĩ": 5888,
      "ç¶ł": 5889,
      "éģİç¨ĭ": 5890,
      "å·®å¼Ĥ": 5891,
      "å°Ĭéĩį": 5892,
      "æĺ¯ä¸ŃåĽ½": 5893,
      "ä¸įåı¯èĥ½": 5894,
      "å£¹": 5895,
      "âĶ": 5896,
      "æĸ°çĸĨ": 5897,
      "ä¹Łæ²¡": 5898,
      "çĹħäºº": 5899,
      "å¹´å¤ľ": 5900,
      "é¢Ī": 5901,
      "çŃĨ": 5902,
      "ä¸įèī¯": 5903,
      "åħ¥åı£": 5904,
      "ä¸īè§Ĵ": 5905,
      "å°Ĩäºİ": 5906,
      "å¼ķè¿Ľ": 5907,
      "å¤§å¸Ī": 5908,
      "éĹº": 5909,
      "èīĩ": 5910,
      "æ¨¡æĭŁ": 5911,
      "åĪłéĻ¤": 5912,
      "92": 5913,
      "å°¼æĸ¯": 5914,
      "åį±å®³": 5915,
      "åľºæīĢ": 5916,
      "ä¿±ä¹Ĳéĥ¨": 5917,
      "æľ¬æĿ¥": 5918,
      "åĮºåĪ«": 5919,
      "èĢĥå¯Ł": 5920,
      "åį¢": 5921,
      "å¤ļå®¶": 5922,
      "èĪĬ": 5923,
      "ä¿ĿåŃĺ": 5924,
      "ãĥĥ": 5925,
      "éĩĬæĶ¾": 5926,
      "å½Ī": 5927,
      "æľĢå¤ļ": 5928,
      "éķ¿èħ¿": 5929,
      "æīĵç®Ĺ": 5930,
      "çº§çļĦ": 5931,
      "è°¢è°¢": 5932,
      "è¯ģä¹¦": 5933,
      "éĲĺ": 5934,
      "ä½łæĺ¯": 5935,
      "æİĴè¡Į": 5936,
      "å¿ħçĦ¶": 5937,
      "è·³èĽĭ": 5938,
      "æĻĥ": 5939,
      "è¿ĶåĽŀ": 5940,
      "è¯ĨåĪ«": 5941,
      "çĽĪåĪ©": 5942,
      "æĹłè®ºæĺ¯": 5943,
      "åľ¨æĪĳ": 5944,
      "ä¸īåĪĨ": 5945,
      "èĦ«": 5946,
      "è§Ĩè§ī": 5947,
      "èĤ¡å¸Ĥ": 5948,
      "çŁŃæľŁ": 5949,
      "äºŃ": 5950,
      "èĥ½å¤ł": 5951,
      "åľ°åĽ¾": 5952,
      "å¯¹æ¯Ķ": 5953,
      "å§ļ": 5954,
      "è®ºæĸĩ": 5955,
      "æĩ·": 5956,
      "éĢĽ": 5957,
      "ä¸ĭè¼ī": 5958,
      "èĢĮä¸į": 5959,
      "æĥ³è±¡": 5960,
      "ç©¶ç«Ł": 5961,
      "âĨĴ": 5962,
      "åĲ¾": 5963,
      "éľŀ": 5964,
      "150": 5965,
      "çĽ¯": 5966,
      "ä¸ĵåĪ©": 5967,
      "æĹ©ä¸Ĭ": 5968,
      "QQ": 5969,
      "çĶµæ¢¯": 5970,
      "èµĽäºĭ": 5971,
      "æ½ĺ": 5972,
      "ä¸Ģçº¿": 5973,
      "ä¸»äºº": 5974,
      "çĤºäºĨ": 5975,
      "å°ĭ": 5976,
      "æŃ£è§Ħ": 5977,
      "åŃĺåĤ¨": 5978,
      "ç³»ç»ŁçļĦ": 5979,
      "åĿļå®ļ": 5980,
      "æĥħäºº": 5981,
      "èķ¾": 5982,
      "åħħçĶµ": 5983,
      "åĩºåıĳ": 5984,
      "æ¼¢": 5985,
      "è¯¾åłĤ": 5986,
      "èĿ¶": 5987,
      "hone": 5988,
      "å®Ŀè´Ŀ": 5989,
      "çļĦä»·æł¼": 5990,
      "æ±ª": 5991,
      "è½¬åĮĸ": 5992,
      "èĶ¬èıľ": 5993,
      "ID": 5994,
      "ç«ĭåĪ»": 5995,
      "åĩ¶": 5996,
      "åĮĻ": 5997,
      "èĤ¾": 5998,
      "éĢĻéº¼": 5999,
      "720": 6000,
      "MA": 6001,
      "ä¸Ģåº¦": 6002,
      "ä¸Ĭä½į": 6003,
      "è¿Ľåİ»": 6004,
      "å¡ĳæĸĻ": 6005,
      "åħ»èĢģéĩĳ": 6006,
      "å¦¨": 6007,
      "éĶĪ": 6008,
      "è¾ĥå¤§": 6009,
      "è¨ª": 6010,
      "çĻ¼çĶŁ": 6011,
      "è®¡ç®Ĺæľº": 6012,
      "çļĦä½¿çĶ¨": 6013,
      "èĪŁ": 6014,
      "éĶ¡": 6015,
      "æķħéļľ": 6016,
      "éĢ²åħ¥": 6017,
      "US": 6018,
      "åİŁæ²¹": 6019,
      "éİ®": 6020,
      "ç½Ĳ": 6021,
      "æ¯Ķçī¹": 6022,
      "æİ¥çĿĢ": 6023,
      "åįģå¤§": 6024,
      "åŃĿ": 6025,
      "è¢ĸ": 6026,
      "å»ºæĪĲ": 6027,
      "æĹ©å·²": 6028,
      "å°ļæľª": 6029,
      "ä¸Īå¤«": 6030,
      "3000": 6031,
      "åĪĨéħį": 6032,
      "åħ³å¿ĥ": 6033,
      "çĶ·åŃ©": 6034,
      "æ·ĺå®Ŀ": 6035,
      "éįµ": 6036,
      "åĢ«": 6037,
      "åľ°çĲĥ": 6038,
      "çķ¢": 6039,
      "è³ĩæºĲ": 6040,
      "ä»²": 6041,
      "ä¸ºä½ķ": 6042,
      "ä½ľçĤº": 6043,
      "åºĶæĢ¥": 6044,
      "èĹ¤": 6045,
      "å¾ªçİ¯": 6046,
      "å¸ķ": 6047,
      "åĩºåĶ®": 6048,
      "å±±è¥¿": 6049,
      "é¢ĨåŁŁçļĦ": 6050,
      "ä¼ª": 6051,
      "ong": 6052,
      "åĬłæĭ¿": 6053,
      "éĺŁçļĦ": 6054,
      "é£ŁçĶ¨": 6055,
      "?!": 6056,
      "ä¸Ńæľī": 6057,
      "éĿ¢ä¸Ĭ": 6058,
      "ai": 6059,
      "ok": 6060,
      "ĠJ": 6061,
      "å¯º": 6062,
      "è¨İ": 6063,
      "æĤĦ": 6064,
      "è®¤åı¯": 6065,
      "èĥĮåĲİ": 6066,
      "æľīæķĪçļĦ": 6067,
      "çĺ¤": 6068,
      "ä¸Ģæµģ": 6069,
      "æ¶Ľ": 6070,
      "æº¢": 6071,
      "åİŁæĸĻ": 6072,
      "æŃī": 6073,
      "æ¢¨": 6074,
      "è¿Ŀåıį": 6075,
      "ä¸įä¸Ĭ": 6076,
      "éĻ¢æł¡": 6077,
      "å¤ļä¹ħ": 6078,
      "å¨ģèĥģ": 6079,
      "è¿Ļå°±æĺ¯": 6080,
      "æŁ¯": 6081,
      "ä¿ĿçķĻ": 6082,
      "åĲĦçº§": 6083,
      "åĬŁæķĪ": 6084,
      "è¾ĥä¸º": 6085,
      "æĪĳè¯´": 6086,
      "æ¨¹": 6087,
      "ãĤ¹": 6088,
      "åĽ½æ°ĳ": 6089,
      "çŃĭ": 6090,
      "å¿«éĢĴ": 6091,
      "å¼ķé¢Ĩ": 6092,
      "æķ²": 6093,
      "æĥħæ³ģ": 6094,
      "æł¼å±Ģ": 6095,
      "æľįè£ħ": 6096,
      "æ±½è»Ĭ": 6097,
      "éĢĹ": 6098,
      "å¤§æķ°æį®": 6099,
      "ä¿®å¤į": 6100,
      "èĵĦ": 6101,
      "te": 6102,
      "å¹£": 6103,
      "è¾±": 6104,
      "åĵĩ": 6105,
      "åĪĻæĺ¯": 6106,
      "ä¾ĿæĹ§": 6107,
      "å»·": 6108,
      "åŀ«": 6109,
      "ä¾Ĩèªª": 6110,
      "éľľ": 6111,
      "çĽ®åħī": 6112,
      "ç¾İå¥³ä¸»æĴŃ": 6113,
      "çĦ¡æ³ķ": 6114,
      "é©±åĬ¨": 6115,
      "è·ĳçĭĹåĽ¾": 6116,
      "éĻķ": 6117,
      "è°Ĳ": 6118,
      "è¹Ī": 6119,
      "åĽ½è¯Ń": 6120,
      "ä¼ļçļĦ": 6121,
      "è¿Ľå±ķ": 6122,
      "åĢŁæ¬¾": 6123,
      "ä¸Ģä»½": 6124,
      "ç§įæ¤į": 6125,
      "çľ¼åīį": 6126,
      "å®ĺåĳĺ": 6127,
      "çį²å¾Ĺ": 6128,
      "ä¸Ĭçº¿": 6129,
      "ãģ¾": 6130,
      "çģµæ´»": 6131,
      ",ãĢĮ": 6132,
      "åħ¨å¹´": 6133,
      "å¹¶éĿŀ": 6134,
      "éĻ¢éķ¿": 6135,
      "æĸ°èĥ½æºĲæ±½è½¦": 6136,
      "ä¿©": 6137,
      "åľ°éĵģ": 6138,
      "çĪĨåıĳ": 6139,
      "åĩ°": 6140,
      "å¤§æĪĺ": 6141,
      "å¦¥": 6142,
      "æĽ´å¥½åľ°": 6143,
      "æĦıå¤§åĪ©": 6144,
      "æĬ¥è®°èĢħ": 6145,
      "ç¥ŀç»ı": 6146,
      "çģ«è½¦": 6147,
      "Ġ[": 6148,
      "çĭłçĭł": 6149,
      "å°Ĩåħ¶": 6150,
      "æĺ¾çĦ¶": 6151,
      "æĹ©çĤ¹": 6152,
      "64": 6153,
      "âĢ¢": 6154,
      "å¥¢": 6155,
      "å®ļä¹ī": 6156,
      "ä»¬çļĦ": 6157,
      "åĲĪéĽĨ": 6158,
      "å®¢æĪ¶": 6159,
      "åı¯è§ģ": 6160,
      "æĶ¯éĥ¨": 6161,
      "éĢ¾": 6162,
      "ä»ĸæĺ¯": 6163,
      "èĦ¸ä¸Ĭ": 6164,
      "å¼ıçļĦ": 6165,
      "éĺ²æĬ¤": 6166,
      "ãĤ¤": 6167,
      "éĩĭ": 6168,
      "æĢ»éĥ¨": 6169,
      "åį´æĺ¯": 6170,
      "est": 6171,
      "å®¡æī¹": 6172,
      "67": 6173,
      "Ġ12": 6174,
      "åĲĦèĩª": 6175,
      "å®¶æĹı": 6176,
      "å°ıåŃ©": 6177,
      "æĿ¿åĿĹ": 6178,
      "è´¦åı·": 6179,
      "å·¾": 6180,
      "é«ĺè¾¾": 6181,
      "ä½łè¦ģ": 6182,
      "èĢĮå·²": 6183,
      "åĮºåĿĹ": 6184,
      "æĹ¥ä¸ĭåįĪ": 6185,
      "è½¬åıĺ": 6186,
      "èģª": 6187,
      "ä¾¦": 6188,
      "æĦŁè¦º": 6189,
      "éĤ®ä»¶": 6190,
      "OL": 6191,
      "ç©ºéĸĵ": 6192,
      "èĤª": 6193,
      "æĹłçĸĳ": 6194,
      "Ġæľī": 6195,
      "è¡Įä¸ļçļĦ": 6196,
      "Ġh": 6197,
      "åħ¨èº«": 6198,
      "ç´į": 6199,
      "çĶŁæ´»çļĦ": 6200,
      "ä¼Ĳ": 6201,
      "è¿ĩäºĨ": 6202,
      "æıĲåĪ°": 6203,
      "æĿĳæ°ĳ": 6204,
      "ä¸įè¡Į": 6205,
      "åĪĨå¸ĥ": 6206,
      "åħ³éĹŃ": 6207,
      "çĩĪ": 6208,
      "ä¸´åºĬ": 6209,
      "åħ¼èģĮ": 6210,
      "Ġthe": 6211,
      "ä½Ĳ": 6212,
      "åĲĵ": 6213,
      "åĮºçļĦ": 6214,
      "åī¯ä¸»ä»»": 6215,
      "«çĹ": 6216,
      "ä¸įéľĢè¦ģ": 6217,
      "ä¸įä¸Ģæł·": 6218,
      "äººäºº": 6219,
      "å¢ĵ": 6220,
      "è´µå·ŀ": 6221,
      "è¡Ŀ": 6222,
      "çĶŁéķ¿": 6223,
      "æ¹ĺ": 6224,
      "åİ¨æĪ¿": 6225,
      "ie": 6226,
      "çī©çĲĨ": 6227,
      "æļ¨": 6228,
      "åĶ®åĲİ": 6229,
      "äºĭå®ŀä¸Ĭ": 6230,
      "çļĦæĦŁè§ī": 6231,
      "åŃ¦åĳĺ": 6232,
      "æŀĦæĪĲ": 6233,
      "ä¸įçĦ¶": 6234,
      "åīµæĸ°": 6235,
      "IN": 6236,
      "ç®¡éģĵ": 6237,
      "ä½ıå®ħ": 6238,
      "è©¢": 6239,
      "éĿĴå°ĳå¹´": 6240,
      "ä¸§": 6241,
      "å·¥äºº": 6242,
      "éħ¬": 6243,
      "æ¨±": 6244,
      "æ°ĽåĽ´": 6245,
      "æľĪåºķ": 6246,
      "å®īåįĵ": 6247,
      "çĲĥè¿·": 6248,
      "æ¼Ķåĩº": 6249,
      "åŁºæľ¬ä¸Ĭ": 6250,
      "çļĦè®¾è®¡": 6251,
      "å«ģ": 6252,
      "ä¸Ģäºº": 6253,
      "èĩªä¿¡": 6254,
      "æ²¡æĥ³åĪ°": 6255,
      "æ´»åĬĽ": 6256,
      "éłģ": 6257,
      "å±Ģéķ¿": 6258,
      "ĠåĴĮ": 6259,
      "å¸¦é¢Ĩ": 6260,
      "ä¸¾æĬ¥": 6261,
      "æķıæĦŁ": 6262,
      "PS": 6263,
      "ä¸Ģçīĩ": 6264,
      "éĩĿ": 6265,
      "æĹ¥èĩ³": 6266,
      "å®ŀæĹ¶": 6267,
      "æ°ĳèŃ¦": 6268,
      "åĶ¤": 6269,
      "åľ¨çº¿è§Ĩé¢ĳ": 6270,
      "æĬļ": 6271,
      "èĩŃ": 6272,
      "æµģè¡Į": 6273,
      "é¢ĳéģĵ": 6274,
      "æł¹æĵļ": 6275,
      "å¯ĨåĪĩ": 6276,
      "ç§ĳæĬĢæľīéĻĲåħ¬åı¸": 6277,
      "åŃĲå¥³": 6278,
      "èµ°è¿Ľ": 6279,
      "ç®Ĺæĺ¯": 6280,
      "æ³¨æĺİ": 6281,
      "çªĿ": 6282,
      "å¤±åİ»": 6283,
      "çłĶç©¶çĶŁ": 6284,
      "æĪĳè§īå¾Ĺ": 6285,
      "æĴĴ": 6286,
      "é¸Ń": 6287,
      "èĦĤèĤª": 6288,
      "çłĶç©¶éĻ¢": 6289,
      "åĿļåĨ³": 6290,
      "èĪŀåı°": 6291,
      "èĤ¡ä»½æľīéĻĲåħ¬åı¸": 6292,
      "xt": 6293,
      "åķªåķªåķª": 6294,
      "éĢ¢": 6295,
      "åº«": 6296,
      "åĲİéĿ¢": 6297,
      "å®ŀä½ĵ": 6298,
      "æį®æĤī": 6299,
      "éŃħåĬĽ": 6300,
      "ä¸Ģæĸ¹éĿ¢": 6301,
      "æľĢå¾Į": 6302,
      "æ¥Ĭ": 6303,
      "æħĮ": 6304,
      "å²Ń": 6305,
      "å°įæĸ¼": 6306,
      "äºĨå¾Īå¤ļ": 6307,
      "è¨±å¤ļ": 6308,
      "IS": 6309,
      "è¿ĻæĹ¶": 6310,
      "æ¯ħ": 6311,
      "ä»ĬåĲİ": 6312,
      "åıĪæĺ¯": 6313,
      "PC": 6314,
      "åįļçī©": 6315,
      "åĲ«æľī": 6316,
      "ä¸įä½Ĩ": 6317,
      "ä¸ĬåįĬå¹´": 6318,
      "ä¸ĵæ³¨": 6319,
      "å°½å¿«": 6320,
      "æķ¸æĵļ": 6321,
      "åı¦ä¸Ģæĸ¹éĿ¢": 6322,
      "ä¸Ģç³»åĪĹ": 6323,
      "ç»µ": 6324,
      "ä¸ļåĨħ": 6325,
      "å¤©ç©º": 6326,
      "ä»Ģéº½": 6327,
      "åİķæīĢ": 6328,
      "name": 6329,
      "æĪĪ": 6330,
      "ç¾İå¥½": 6331,
      "éĤ£æł·": 6332,
      "æŃ»äºĨ": 6333,
      ");": 6334,
      "å±ŀæĢ§": 6335,
      "èµ¢å¾Ĺ": 6336,
      "çŃ¾è®¢": 6337,
      "è½©": 6338,
      "éĤĵ": 6339,
      "åı£ç½©": 6340,
      "æīĵåį°": 6341,
      "è²¸æ¬¾": 6342,
      "IT": 6343,
      "åīĬ": 6344,
      "çĶµåĬĽ": 6345,
      "ç·©": 6346,
      "åĭ¿": 6347,
      "ç¼¸": 6348,
      "èģĮè´£": 6349,
      "ine": 6350,
      "èĹį": 6351,
      "cm": 6352,
      "ä½ĵåĪ¶": 6353,
      "éªĤ": 6354,
      "å¸¦åĬ¨": 6355,
      "é½Ĭ": 6356,
      "çŁ¥è¯Ĩäº§æĿĥ": 6357,
      "è¾ĸ": 6358,
      "è¢ģ": 6359,
      "æİ¥ä¸ĭæĿ¥": 6360,
      "çļĩåĨł": 6361,
      "ä¸Ģå¸¦": 6362,
      "èĢķ": 6363,
      "éĽŀ": 6364,
      "èĤĽ": 6365,
      "å¾ħéģĩ": 6366,
      "CO": 6367,
      "çĤŃ": 6368,
      "è£ħç½®": 6369,
      "åı·çłģ": 6370,
      "åŁ¹èĤ²": 6371,
      "çļĦä¼ģä¸ļ": 6372,
      "ä¸ĭæ»ĳ": 6373,
      "æİ§èĤ¡": 6374,
      "çµĲæŀľ": 6375,
      "é¢ľåĢ¼ä¸įéĶĻ": 6376,
      "å¼ĢäºĨ": 6377,
      "å¿ħéłĪ": 6378,
      "çł´è§£": 6379,
      "èģļçĦ¦": 6380,
      "æľīä¸ª": 6381,
      "æĶĢ": 6382,
      "æĤĶ": 6383,
      "è§£æĶ¾": 6384,
      "çµ¡": 6385,
      "é¸¿": 6386,
      "æĢİä¹ĪåĬŀ": 6387,
      "æĶ¾å¿ĥ": 6388,
      "åįĹæµ·": 6389,
      "360": 6390,
      "éģŃéģĩ": 6391,
      "94": 6392,
      "æķ´æ²»": 6393,
      "èŀįåħ¥": 6394,
      "åıįé¦Ī": 6395,
      "æ³°åĽ½": 6396,
      "ee": 6397,
      "çļĦæĻĤåĢĻ": 6398,
      "ä¸Ģçľ¼": 6399,
      "åĸĤ": 6400,
      "å¼ºå¤§çļĦ": 6401,
      "ãĤĵ": 6402,
      "å¤§çº¦": 6403,
      "å®¶å±ħ": 6404,
      "æ½Ķ": 6405,
      "åľ¨ä»ĸ": 6406,
      "çĿĢä¸Ģ": 6407,
      "åįıåĲĮ": 6408,
      "çļĦä¸ŃåĽ½": 6409,
      "åĮĸå¦Ĩ": 6410,
      "åĪ¶åĵģ": 6411,
      "å·²æľī": 6412,
      "é«ĺåħ´": 6413,
      "éĥ¨ä½į": 6414,
      "éĽĨæĪĲ": 6415,
      "æ¯ıä¸ªäºº": 6416,
      "çĶ·çĶŁ": 6417,
      "ãĢįãĢĤ": 6418,
      "ĠâĢĵ": 6419,
      "å¸Ĩ": 6420,
      "æİ¡": 6421,
      "æ¶ĪèĢĹ": 6422,
      "éļ¾åº¦": 6423,
      "ä¸Ĭå¸Ĥåħ¬åı¸": 6424,
      "éģµå®Ī": 6425,
      "æĢ§æł¼": 6426,
      "ç´Ķ": 6427,
      "å½¢æĢģ": 6428,
      "åĥıæĺ¯": 6429,
      "éĽľ": 6430,
      "æıĲåĩºäºĨ": 6431,
      "éĢ±": 6432,
      "é£ŀè¡Į": 6433,
      "å¥ĭæĸĹ": 6434,
      "mp": 6435,
      "ä¸ŃåŃ¦": 6436,
      "æĽ´æį¢": 6437,
      "æĺ¾å¾Ĺ": 6438,
      "ç«łèĬĤ": 6439,
      "AèĤ¡": 6440,
      "çļĦæľįåĬ¡": 6441,
      "ä¸Ģå£°": 6442,
      "ä¸ļä¸»": 6443,
      "åīįæĻ¯": 6444,
      "åįģäºĶ": 6445,
      "åĽ¢ç»ĵ": 6446,
      "åĪĿæŃ¥": 6447,
      "èĵĭ": 6448,
      "ate": 6449,
      "çļĦèº«": 6450,
      "ä¸įæĸ·": 6451,
      "èĥĢ": 6452,
      "ä¼°è®¡": 6453,
      "53": 6454,
      "å½Ń": 6455,
      "çĶŁç´ł": 6456,
      "æ¸Ķ": 6457,
      "ä½łåĢĳ": 6458,
      "æĸ¯åĿ¦": 6459,
      "åºĹéĵº": 6460,
      "æ£ĢéªĮ": 6461,
      "å¸Ĳ": 6462,
      "æĹ¥ä¸ĬåįĪ": 6463,
      "çķĻè¨Ģ": 6464,
      "è¿Ļä¹Łæĺ¯": 6465,
      "è¿Ľç¨ĭ": 6466,
      "çŃīçº§": 6467,
      "å¥¶åŃĲ": 6468,
      "åĩºçİ°äºĨ": 6469,
      "èĴĻåı¤": 6470,
      "å¿ĥæ°´": 6471,
      "å¯¨": 6472,
      "æ¸©æļĸ": 6473,
      "åıĳå¸ĥçļĦ": 6474,
      "å¥¥è¿Ĳ": 6475,
      "æĹŃ": 6476,
      "èĻ¹": 6477,
      "Ġof": 6478,
      "éĹ¨åı£": 6479,
      "æ£Ģå¯Ł": 6480,
      "èĬ¯çīĩ": 6481,
      "ä¹ĸ": 6482,
      "æľºéģĩ": 6483,
      "é¦ĸå¸Ń": 6484,
      "çģ«ç®Ń": 6485,
      "å¯Ĩçłģ": 6486,
      "çĪĨçĤ¸": 6487,
      "çºªå½ķ": 6488,
      "æ´Ĺæ¾¡": 6489,
      "çļĦèĥ½åĬĽ": 6490,
      "çº½çº¦": 6491,
      "åĨ¯": 6492,
      "è§¸": 6493,
      "åĵģç§į": 6494,
      "ç©Ĩ": 6495,
      "æīĵçł´": 6496,
      "ç»Ļå¤§å®¶": 6497,
      "çİ¯çĲĥ": 6498,
      "è¯»ä¹¦": 6499,
      "æ¦®": 6500,
      "äºĨè§£åĪ°": 6501,
      "åıĳå¸ĥæĹ¶éĹ´": 6502,
      "æĹĹä¸ĭ": 6503,
      "åģĩå¦Ĥ": 6504,
      "å¹¸è¿Ĳ": 6505,
      "Ġ11": 6506,
      "ãĢĤãĢĬ": 6507,
      "è§£æ±º": 6508,
      "äºĨèµ·æĿ¥": 6509,
      "æĪĳä»¬åľ¨": 6510,
      "54": 6511,
      "ET": 6512,
      "ä¿±": 6513,
      "éı¡": 6514,
      "æĢ¡": 6515,
      "æİ©": 6516,
      "åĽ½æľī": 6517,
      "åķĨæłĩ": 6518,
      "åİŁçĲĨ": 6519,
      "ç®Ģç§°": 6520,
      "åĩ¸": 6521,
      "åĴ³": 6522,
      "å¾Īå®¹æĺĵ": 6523,
      "åİļçļĦ": 6524,
      "è½¦ä¸»": 6525,
      "æŃ¤åĪ»": 6526,
      "æ¶Īè²»": 6527,
      "éĿĴå²Ľ": 6528,
      "è¾©": 6529,
      "å½©ç¥ŀ": 6530,
      "è¾¾æĪĲ": 6531,
      "==": 6532,
      "åħ¬åĬ¡": 6533,
      "è£¹": 6534,
      "æĳĬ": 6535,
      "âĹı": 6536,
      "çļĦå®īåħ¨": 6537,
      "ç«¶": 6538,
      "ä¸ŃåĽ½çī¹èī²": 6539,
      "åĨĻçľŁ": 6540,
      "æĭĺ": 6541,
      "éļİ": 6542,
      "å®¢äºº": 6543,
      "çĶ¨äºĨ": 6544,
      "äºĴçĽ¸": 6545,
      "åĬłæĭ¿å¤§": 6546,
      "é«ĺäºİ": 6547,
      "æĦıçļĦ": 6548,
      "çº¿è·¯": 6549,
      "è°ĥèĬĤ": 6550,
      "å¡Ĭ": 6551,
      "html": 6552,
      "çº¿ä¸ĭ": 6553,
      "å·®è·Ŀ": 6554,
      "äº§ä¸ļéĵ¾": 6555,
      "Ġ19": 6556,
      "æĺ¯ä»¥": 6557,
      "éķ¿æĹ¶éĹ´": 6558,
      "åĲĥé¥Ń": 6559,
      "ç¡¬ä»¶": 6560,
      "ç®ĢåįķçļĦ": 6561,
      "åľ¨å¤§": 6562,
      "é¡ĺ": 6563,
      "ç´¹": 6564,
      "æ°´çļĦ": 6565,
      "æľ´": 6566,
      "éĢļæĬ¥": 6567,
      "æķ°åŃ¦": 6568,
      "71": 6569,
      "å¤Ħç½ļ": 6570,
      "æīĩ": 6571,
      "åĩºçİ°åľ¨": 6572,
      "ä¹Łå°Ĩ": 6573,
      "çĹĽèĭ¦": 6574,
      "çļĦèĢģ": 6575,
      "åľ°åįĢ": 6576,
      "åľºæ¯ĶèµĽ": 6577,
      "åĨħè£¤": 6578,
      "éĤ£æĺ¯": 6579,
      "ç¶ľ": 6580,
      "çİ©åħ·": 6581,
      "ä¸ĸçķĮæĿ¯": 6582,
      "å®¶ä¸Ń": 6583,
      "éĤ£å°±": 6584,
      "äºĪä»¥": 6585,
      "éļ±": 6586,
      "éķľå¤´": 6587,
      "ä»Ķç»Ĩ": 6588,
      "æľīæĹ¶": 6589,
      "å»Ĭ": 6590,
      "æ°ĳä¼Ĺ": 6591,
      "åħįçĸ«": 6592,
      "å½¼æŃ¤": 6593,
      "éĶ»çĤ¼": 6594,
      "çĶŁèĤ²": 6595,
      "éķ¿æ²Ļ": 6596,
      "éĤ£ç§į": 6597,
      "åĽłèĢĮ": 6598,
      "èĲ¥éĢł": 6599,
      "æıĴåħ¥": 6600,
      "è¦ģæĺ¯": 6601,
      "ä¸¤æ¬¡": 6602,
      "é«Ķé©Ĺ": 6603,
      "æĥ©": 6604,
      "èĥ½åĲ¦": 6605,
      "æĸ°åĮº": 6606,
      "åįĪå¤ľ": 6607,
      "åĽ½çļĦ": 6608,
      "å»ºèŃ°": 6609,
      "æ¼ł": 6610,
      "ä»£çłģ": 6611,
      "æĶ¶èİ·": 6612,
      "èģĶåĤ¨": 6613,
      "è¯ģæį®": 6614,
      "åı¦ä¸Ģä¸ª": 6615,
      "ç§»æ°ĳ": 6616,
      "ä¸ĢçĽ´åľ¨": 6617,
      "è¦ģæľī": 6618,
      "åĬłåĿ¡": 6619,
      "æľªæĿ¥çļĦ": 6620,
      "æľīåĪ©äºİ": 6621,
      "æ°¢": 6622,
      "æĲı": 6623,
      "èĳĹåĲį": 6624,
      "çĶ³æĬ¥": 6625,
      "æ¤Ĵ": 6626,
      "éļľç¢į": 6627,
      "æĬĵä½ı": 6628,
      "å¤ļå°ĳéĴ±": 6629,
      "çļĦæķĪæŀľ": 6630,
      "äº©": 6631,
      "åıªå¥½": 6632,
      "ç¼ĵè§£": 6633,
      "å¹´è½»äºº": 6634,
      "å¼¥": 6635,
      "ä¸ľäº¬": 6636,
      "è©¹": 6637,
      "ç©¿è¶Ĭ": 6638,
      "ä¸Ģçº§": 6639,
      "çĶ¨æĿ¥": 6640,
      "å§Ķæīĺ": 6641,
      "å®ĺæĸ¹ç½ĳç«Ļ": 6642,
      "åµ": 6643,
      "åıĻ": 6644,
      "å¼ĺ": 6645,
      "æĸ°èģŀ": 6646,
      "æĺİå¹´": 6647,
      "åĽŀåİ»": 6648,
      "åıįå¯¹": 6649,
      "æĭ¿åĪ°": 6650,
      "åıĳæĶ¾": 6651,
      "ç¬¬åħŃ": 6652,
      "çī¹æĢ§": 6653,
      "æ¸ħçĲĨ": 6654,
      "éĥ¨éĺŁ": 6655,
      "åĨ²çªģ": 6656,
      "å¤§éĩıçļĦ": 6657,
      "):": 6658,
      "ç¥ŀç§ĺ": 6659,
      "æĬĢæľ¯çļĦ": 6660,
      "çĿ¡çľł": 6661,
      "æĥ¹": 6662,
      "æ±°": 6663,
      "å¤ıå¤©": 6664,
      "èĪŀè¹Ī": 6665,
      "ç»ıéĶĢ": 6666,
      "æ»©": 6667,
      "æľīåĬ©": 6668,
      "æĭ¾": 6669,
      "å¤ĸéĿ¢": 6670,
      "èª¤": 6671,
      "è¥¿æĸ¹": 6672,
      "åľ¨çº¿æĴŃæĶ¾": 6673,
      "è®²è¿°": 6674,
      "ç¯®çĲĥ": 6675,
      "ample": 6676,
      "åĴĮåħ¶ä»ĸ": 6677,
      "æĥ¡": 6678,
      "æĸ°æµª": 6679,
      "å¾Īå°ĳ": 6680,
      "èİŀ": 6681,
      "ãģķ": 6682,
      "ä¸Ģçľĭ": 6683,
      "åĽŀå½Ĵ": 6684,
      "æĿ¡ä¾ĭ": 6685,
      "æĢĿè·¯": 6686,
      "you": 6687,
      "æķĪçĽĬ": 6688,
      "åĽŃåĮº": 6689,
      "æĸ©": 6690,
      "ä¸¾æİª": 6691,
      "å¤®è¡Į": 6692,
      "å¿įä¸įä½ı": 6693,
      "iPhone": 6694,
      "AM": 6695,
      "åĩ½": 6696,
      "çµĦç¹Ķ": 6697,
      "ç²¤": 6698,
      "çĽ¸åºĶçļĦ": 6699,
      "93": 6700,
      "æĺ¯å¯¹": 6701,
      "æľīæľĽ": 6702,
      "æĪĲæķĪ": 6703,
      "éº»çĥ¦": 6704,
      "æĹģè¾¹": 6705,
      "æī¿è®¤": 6706,
      "èĲĿèİī": 6707,
      "éĪ": 6708,
      "ä¸Ģå¼ł": 6709,
      "æ¢³": 6710,
      "æĹ©å°±": 6711,
      "å¦ĩå¥³": 6712,
      "æĩīçĶ¨": 6713,
      "æµ´å®¤": 6714,
      "åįľ": 6715,
      "éģĵå¾·": 6716,
      "è¢«åĳĬ": 6717,
      "æł¡éķ¿": 6718,
      "æ¿Ģåħī": 6719,
      "AG": 6720,
      "éĢĿ": 6721,
      "å¤©åľ°": 6722,
      "ä¿¡æģ¯åĮĸ": 6723,
      "é¤ĺ": 6724,
      "åĢºåĬ¡": 6725,
      "å®ŀéªĮå®¤": 6726,
      "æĺ¯éĿŀå¸¸": 6727,
      "çĻ½å«©": 6728,
      "æĲį": 6729,
      "æĴķ": 6730,
      "æĮģæľī": 6731,
      "åģ·æĥħ": 6732,
      "ä¸ºå¤§å®¶": 6733,
      "ç»ŁçŃ¹": 6734,
      "org": 6735,
      "éŁĭ": 6736,
      "èħ»": 6737,
      "ç¦»å©ļ": 6738,
      "ä»ħä»ħ": 6739,
      "example": 6740,
      "çļĦå£°éŁ³": 6741,
      "æĺı": 6742,
      "å¤§çīĩ": 6743,
      "æ°ĳçĶŁ": 6744,
      "è¡Ģç®¡": 6745,
      "åį«æĺŁ": 6746,
      "éģĭåĭķ": 6747,
      "åĮºåĿĹéĵ¾": 6748,
      "æľīåı¯èĥ½": 6749,
      "ç§©": 6750,
      "åĲİç»Ń": 6751,
      "stname": 6752,
      "SEO": 6753,
      "ĠæĹ¥æľ¬": 6754,
      "åĪ®": 6755,
      "ä¸įåĬ¨": 6756,
      "åıĳéĢģ": 6757,
      "æĥħæĦŁ": 6758,
      "åĥµ": 6759,
      "è¶ħè¶Ĭ": 6760,
      "è¿İæĿ¥": 6761,
      "è³ĩè¨Ĭ": 6762,
      "åħ¨æ°ĳ": 6763,
      "ud": 6764,
      "æı®": 6765,
      "åĨįåº¦": 6766,
      "åĻª": 6767,
      "èĨļ": 6768,
      "ç«ŀèµĽ": 6769,
      "èĦ±è´«": 6770,
      "è£ķ": 6771,
      "ä»ĭç´¹": 6772,
      "ST": 6773,
      "ä¸İæŃ¤": 6774,
      "éĤ£ä¸Ģ": 6775,
      "éħįä»¶": 6776,
      "ers": 6777,
      "çĽĳå¯Ł": 6778,
      "æĮģçºĮ": 6779,
      "åĲĦç¨®": 6780,
      "åİīå®³": 6781,
      "çļĦæľī": 6782,
      "åį¸": 6783,
      "åĸĶ": 6784,
      "åķĨåľº": 6785,
      "æĬ¤çĲĨ": 6786,
      "éģ£": 6787,
      "åħ¬ç§¯": 6788,
      "ç©ºä¸Ń": 6789,
      "æ³¢åĬ¨": 6790,
      "çº³åħ¥": 6791,
      "æ´¾åĩº": 6792,
      "éĻ·åħ¥": 6793,
      "ey": 6794,
      "ä¸Ģä»¶": 6795,
      "èĬ½": 6796,
      "è¨´": 6797,
      "æĺİçļĦ": 6798,
      "æĹłæķ°": 6799,
      "äº¤æį¢": 6800,
      "ç¯Ħ": 6801,
      "æ¬£èµı": 6802,
      "ä»¿ä½Ľ": 6803,
      "æĸ¯çī¹": 6804,
      "åħ±äº§åħļ": 6805,
      "çļĦæĬĢæľ¯": 6806,
      "åķŁ": 6807,
      "çĤ¹çļĦ": 6808,
      "æĴ®": 6809,
      "å®Ļ": 6810,
      "æĸ°çĶŁ": 6811,
      "æ¼¸": 6812,
      "æĶ¹è¿Ľ": 6813,
      "ä¼ĺåħĪ": 6814,
      "çħ§é¡¾": 6815,
      "ãĤĭ": 6816,
      "å¸Ĥéķ¿": 6817,
      "ãģ¨": 6818,
      "åħ»æ®ĸ": 6819,
      "èĨĢ": 6820,
      "è´©": 6821,
      "é¢ĩ": 6822,
      "åŁİåĮº": 6823,
      "éĳ«": 6824,
      "41": 6825,
      "72": 6826,
      "æĬĦ": 6827,
      "æĥ§": 6828,
      "èĤ¡ä»·": 6829,
      "åıĪæľī": 6830,
      "éªĳä¹ĺ": 6831,
      "è¾ħåĬ©": 6832,
      "çº²": 6833,
      "åŃĲéĩĮ": 6834,
      "å¿«çļĦ": 6835,
      "èĮĥåĽ´åĨħ": 6836,
      "æ¨Ļæºĸ": 6837,
      "59": 6838,
      "å¯¹è¯Ŀ": 6839,
      "æĹ¥æĻļ": 6840,
      "å·¥ä½ľä¸Ń": 6841,
      "èĮĤ": 6842,
      "åĬŀäºĭ": 6843,
      "ord": 6844,
      "å¤§äºĨ": 6845,
      "è¯ļä¿¡": 6846,
      "åĸī": 6847,
      "åĽ½å®¶çļĦ": 6848,
      "å¹¼åĦ¿åĽŃ": 6849,
      "å¯§": 6850,
      "è¿Ļä¸¤": 6851,
      "æŀļ": 6852,
      "all": 6853,
      "åħ¬ç§¯éĩĳ": 6854,
      "SM": 6855,
      "æľ¬ç½ĳ": 6856,
      "åīįéĿ¢": 6857,
      "çĶµä¿¡": 6858,
      "å¦ĤæŀľæĤ¨": 6859,
      "é¹°": 6860,
      "æ¼Ĥäº®çļĦ": 6861,
      "æī®æ¼Ķ": 6862,
      "Ġ2019": 6863,
      "æĽ´é«ĺ": 6864,
      "è¶ħå¸Ĥ": 6865,
      "åħļç»Ħ": 6866,
      "å¤¸": 6867,
      "ä¸įå¤§": 6868,
      "éħįå¤ĩ": 6869,
      "è£¸ä½ĵ": 6870,
      "æĦī": 6871,
      "æ¯ĶåĪĨ": 6872,
      "éĵĥ": 6873,
      "æ¬§åħĥ": 6874,
      "æłĳç«ĭ": 6875,
      "çļĦç¬¬ä¸Ģ": 6876,
      "ä¿Ŀåħ»": 6877,
      "å¤Ħç½®": 6878,
      "ä¼łéĢĴ": 6879,
      "æľįåĬ¡åĻ¨": 6880,
      "çĻ¾å¹´": 6881,
      "æĢĢåŃķ": 6882,
      "Ġ20": 6883,
      "åľ°éľĩ": 6884,
      "https": 6885,
      "èĹĿè¡ĵ": 6886,
      "äººåĬĽèµĦæºĲ": 6887,
      "åľ°éĿ¢": 6888,
      "æ¬¡æķ°": 6889,
      "éªĮè¯ģ": 6890,
      "å´©": 6891,
      "åĩºä¾Ĩ": 6892,
      "æ¸Ĺ": 6893,
      "è¶ĬåįĹ": 6894,
      "éļ¾é¢ĺ": 6895,
      "æĪĲä¸ºäºĨ": 6896,
      "ç¹¼çºĮ": 6897,
      "!]": 6898,
      "ä»İæĿ¥": 6899,
      "çĹ´": 6900,
      "éĽ»è©±": 6901,
      "åĢºåĪ¸": 6902,
      "çĹħæĥħ": 6903,
      "åıĤè§Ĥ": 6904,
      "åıĮäºº": 6905,
      "æĺ¾èĳĹ": 6906,
      "éľĩåĬ¨": 6907,
      "è·¯çº¿": 6908,
      "çļĦå°±æĺ¯": 6909,
      "æĿł": 6910,
      "æīĢéľĢ": 6911,
      "èĻ¾": 6912,
      "AN": 6913,
      "åĨįåĬłä¸Ĭ": 6914,
      "å¤§å®¶éĥ½": 6915,
      "å¤§éģĵ": 6916,
      "åĵĢ": 6917,
      "çĶµåĬ¨è½¦": 6918,
      "çĶ±æŃ¤": 6919,
      "con": 6920,
      "ä¾ĿéĿł": 6921,
      "ç§¯ç´¯": 6922,
      "è¸¢": 6923,
      "åĪ¶éĢłä¸ļ": 6924,
      "çħĻ": 6925,
      "æŃ¥éª¤": 6926,
      "çłĶç©¶æīĢ": 6927,
      "å³¡": 6928,
      "çļĦæľºä¼ļ": 6929,
      "åĬī": 6930,
      "åŃ¦èĢħ": 6931,
      "ä¸¤åĽ½": 6932,
      "å¢ŀåĬłäºĨ": 6933,
      "åĩŃåĢŁ": 6934,
      "çļĦæķ°æį®": 6935,
      "å¥½åıĭ": 6936,
      "ä¹ĭéĸĵ": 6937,
      "å¹²çļĦ": 6938,
      "ç¡®è¯Ĭ": 6939,
      "å®ŀçİ°äºĨ": 6940,
      "æķĳæı´": 6941,
      "ä¿¡çĶ¨åį¡": 6942,
      "äººåĴĮ": 6943,
      "Ġé¦Ļæ¸¯": 6944,
      "è®¼": 6945,
      "è´¤": 6946,
      "äº§éĩı": 6947,
      "ç¤¼çī©": 6948,
      "èµĶåģ¿": 6949,
      "åľ°æĿ¿": 6950,
      "å°ıç±³": 6951,
      "è½¬æį¢": 6952,
      "63": 6953,
      "å¥§": 6954,
      "éĹ·": 6955,
      "ç¿ł": 6956,
      "ç´§æĢ¥": 6957,
      "éªļè´§": 6958,
      "æĦŁåħ´è¶£": 6959,
      "é¬Ĩ": 6960,
      "ä¸Ģéģĵ": 6961,
      "éĤ£éº¼": 6962,
      "ãĤ«": 6963,
      "æ¡Ĩæŀ¶": 6964,
      "æĸ°åĬłåĿ¡": 6965,
      "åıĹä¼¤": 6966,
      "åį³ä¾¿": 6967,
      "è¸©": 6968,
      "é£¯åºĹ": 6969,
      "å¸ĸ": 6970,
      "æĻķ": 6971,
      "é«ĺçŃī": 6972,
      "åĵģçīĮçļĦ": 6973,
      "æĸ°åĨłèĤºçĤİ": 6974,
      "ER": 6975,
      "ight": 6976,
      "Ġin": 6977,
      "å¤§èµĽ": 6978,
      "éĩĳæ²Ļ": 6979,
      "ç¿°": 6980,
      "åı¤ä»£": 6981,
      "é¡¯ç¤º": 6982,
      "è·ª": 6983,
      "çľ¼ç¥ŀ": 6984,
      "ian": 6985,
      "Ġ15": 6986,
      "åı¯ä»¥éĢļè¿ĩ": 6987,
      "ãģ£": 6988,
      "è¡Ģæ¶²": 6989,
      "æĭĽåķĨ": 6990,
      "éī´å®ļ": 6991,
      "éĻķè¥¿": 6992,
      "å«Ĥ": 6993,
      "ä¹łè¿ĳå¹³æĢ»ä¹¦è®°": 6994,
      "800": 6995,
      "ĠæĪĲäºº": 6996,
      "éĺĢ": 6997,
      "åħ¬å¯ĵ": 6998,
      "çĽ®å½ķ": 6999,
      "åı¯èĥ½æĢ§": 7000,
      "æĺ¯ä¸ĢåĢĭ": 7001,
      "æĶ»åĿļ": 7002,
      "åİĤåķĨ": 7003,
      "åĸ®ä½į": 7004,
      "çªĹåı£": 7005,
      "åĨħè¡£": 7006,
      "åħ´å¥ĭ": 7007,
      "ä¾µçĬ¯": 7008,
      "ç§©åºı": 7009,
      "çĽ¼": 7010,
      "çŃĴ": 7011,
      "èµ°åĪ°": 7012,
      "çĻ»éĻĨ": 7013,
      "ç°¡åĸ®": 7014,
      "æĭĮ": 7015,
      "åıĳçļĦ": 7016,
      "ä½łå°±": 7017,
      "åħ¬æ°ĳ": 7018,
      "å§¬": 7019,
      "éĢīæīĭ": 7020,
      "!ãĢį": 7021,
      "åĮĢ": 7022,
      "åįļå®¢": 7023,
      "ĠÂ©": 7024,
      "åħ¨è£¸": 7025,
      "å¸ĤæĶ¿åºľ": 7026,
      "æ©¡": 7027,
      "åĲ«éĩı": 7028,
      "çĮĽæĵį": 7029,
      "ä¸ŃæĸĩåŃĹå¹ķ": 7030,
      "og": 7031,
      "åĲĮæľŁ": 7032,
      "åı£åĳ³": 7033,
      "æ°ĶçļĦ": 7034,
      "å¹¿æĴŃ": 7035,
      "ç¶ĵçĩŁ": 7036,
      "çļĦçĽ®æłĩ": 7037,
      "åĪ°ä½į": 7038,
      "ä¹Łä¸įä¼ļ": 7039,
      "å¾®ç¬ĳ": 7040,
      "èĭıå·ŀ": 7041,
      "å¨ĩåĸĺ": 7042,
      "ä¹Łä¸įæĺ¯": 7043,
      "ä¸īåįģ": 7044,
      "è®©å¥¹": 7045,
      "åįıåĬ©": 7046,
      "ç¬¬ä¸īæĸ¹": 7047,
      "ä»¥å¾Ģ": 7048,
      "å¤ļæł·": 7049,
      "æĬ¥ä»·": 7050,
      "å·¥ç¨ĭå¸Ī": 7051,
      "ç»ĥä¹ł": 7052,
      "erved": 7053,
      "ç½¢": 7054,
      "åıĹä¸įäºĨ": 7055,
      "èĳĽ": 7056,
      "ç±»çļĦ": 7057,
      "89": 7058,
      "è¡į": 7059,
      "æľªç»ı": 7060,
      "è¾ĵåĩº": 7061,
      "æĬĸéŁ³": 7062,
      "In": 7063,
      "çŃīäºº": 7064,
      "è±«": 7065,
      "æķĪåºĶ": 7066,
      "äº¬ä¸ľ": 7067,
      "æĺ¨æĹ¥": 7068,
      "éĹºèľľ": 7069,
      "é¡ı": 7070,
      "éŁ¦": 7071,
      "åĪĽå§ĭ": 7072,
      "åĸľæ¬¢çļĦ": 7073,
      "è¨ĺèĢħ": 7074,
      "Ġ18": 7075,
      "çļĦåŁºæľ¬": 7076,
      "ä¸Ģæ¬¾": 7077,
      "æľ¬ä¹¦": 7078,
      "å¦Ĥæľī": 7079,
      "åĿ¤": 7080,
      "åĲįä¸º": 7081,
      "æĵħ": 7082,
      "æĹħå®¢": 7083,
      "TV": 7084,
      "sp": 7085,
      "Ġé«ĺæ¸ħ": 7086,
      "ä¸ĢæĬĬ": 7087,
      "çĻ«çĹ": 7088,
      "è²¿": 7089,
      "çķĮéĿ¢": 7090,
      "å®ĥæĺ¯": 7091,
      "ä¼ĬæľĹ": 7092,
      "éĢ»è¾ĳ": 7093,
      "äºĶå¹´": 7094,
      "çĻ«çĹ«": 7095,
      "Ġn": 7096,
      "å¤§èĥĨ": 7097,
      "æŃ§": 7098,
      "èĻĽ": 7099,
      "å¤ĦåĪĨ": 7100,
      "æĿĤå¿Ĺ": 7101,
      "âĸ²": 7102,
      "hu": 7103,
      "åħ¹": 7104,
      "åĴĮè°Ĳ": 7105,
      "çº±": 7106,
      "åľĵ": 7107,
      "èµ·åĪ°": 7108,
      "ç»ıæµİåıĳå±ķ": 7109,
      "74": 7110,
      "ç»³": 7111,
      "ãģ¦": 7112,
      "éļĶç¦»": 7113,
      "Ġand": 7114,
      "èµĦè´¨": 7115,
      "éĢĢåĩº": 7116,
      "æĳĦåĥı": 7117,
      "çºłçº·": 7118,
      "CD": 7119,
      "ä¸Ńå±±": 7120,
      "ä¹ĭæīĢä»¥": 7121,
      "æµ·åĨĽ": 7122,
      "åĲĦå¤§": 7123,
      "æ°¸ä¹ħ": 7124,
      "åħ¬ä¼Ĺåı·": 7125,
      "83": 7126,
      "ä¸Ńæĸ°": 7127,
      "ä¸Ĭæľī": 7128,
      "çİ©çļĦ": 7129,
      "èĤĮèĤ¤": 7130,
      "æĬ«éľ²": 7131,
      "110": 7132,
      "åĲµ": 7133,
      "æ³Ĭ": 7134,
      "çĶŁæ¶¯": 7135,
      "åİŁæłĩé¢ĺ": 7136,
      "åģ¥åħ¨": 7137,
      "2007": 7138,
      "ard": 7139,
      "å®ĮæĪĲäºĨ": 7140,
      "æĹ¥çĽĬ": 7141,
      "éĹ´çļĦ": 7142,
      "è¥¿éĥ¨": 7143,
      "ç«ŀæĬĢ": 7144,
      "åĦªæĥł": 7145,
      "5000": 7146,
      "84": 7147,
      "çĽ²": 7148,
      "å¯¹åºĶ": 7149,
      "éĥ½è¢«": 7150,
      "ãģĭ": 7151,
      "éĸĭçĻ¼": 7152,
      "æİ°": 7153,
      "å£ŀ": 7154,
      "ä¸įå¼Ģ": 7155,
      "è¦ģç´ł": 7156,
      "çľĭåĪ°äºĨ": 7157,
      "çĶµæľº": 7158,
      "èģĮåĬ¡": 7159,
      "èĤĮèĤī": 7160,
      "åľ¨éĢĻ": 7161,
      "æ¸£": 7162,
      "æĪ¿äº§": 7163,
      "è¯Ŀé¢ĺ": 7164,
      "è³ªéĩı": 7165,
      "ĠæľĪ": 7166,
      "è¦½": 7167,
      "ä¸īæĺ¯": 7168,
      "æĦŁåıĹåĪ°": 7169,
      "ä¸ĩåĲ¨": 7170,
      "å»¶ä¼¸": 7171,
      "æ¡£æ¡Ī": 7172,
      "SU": 7173,
      "ss": 7174,
      "è´ª": 7175,
      "ãĥª": 7176,
      "ãĤ¢": 7177,
      "äºĭä¸ļåįķä½į": 7178,
      "æ²ª": 7179,
      "ç³Ł": 7180,
      "åĽŀå¿Ĩ": 7181,
      "åĽĽå¤§": 7182,
      "æľªä¾Ĩ": 7183,
      "ç·£": 7184,
      "åºĶè¯¥æĺ¯": 7185,
      "Ġ>": 7186,
      "ä¸Ģåıª": 7187,
      "éĴĵ": 7188,
      "éĽĨåľĺ": 7189,
      "åĳĬçŁ¥": 7190,
      "çļĦè©±": 7191,
      "çķı": 7192,
      "æ·®": 7193,
      "ä½Ĩä»ĸ": 7194,
      "çĥŃçĤ¹": 7195,
      "åıĳåĬ¨æľº": 7196,
      "çļĦå¸Ĥåľº": 7197,
      "æĹ¶åħī": 7198,
      "åīĸ": 7199,
      "è¶ķ": 7200,
      "æķĻå®¤": 7201,
      "è¯·æ±Ĥ": 7202,
      "æ¾³å¤§åĪ©": 7203,
      "åī¯ä¹¦è®°": 7204,
      "éķ¿æ±Ł": 7205,
      "æ©Łæľĥ": 7206,
      "ä¸¸": 7207,
      "è¦ģæ³¨æĦı": 7208,
      "ç´Ļ": 7209,
      "åĩıèĤ¥": 7210,
      "?ãĢį": 7211,
      "çļĦè¯´": 7212,
      "çļĦåħ¬åı¸": 7213,
      "äº§èĥ½": 7214,
      "é¾Ł": 7215,
      "çĽ¸ä¼¼": 7216,
      "å¤ĩæ¡Ī": 7217,
      "çķ¶çĦ¶": 7218,
      "åĩ¤åĩ°": 7219,
      "æ·Ģ": 7220,
      "çĹĴ": 7221,
      "iz": 7222,
      "äºĨæĪĳ": 7223,
      "çĤ¹å¤´": 7224,
      "ä¸´æĹ¶": 7225,
      "èİ·å¾ĹäºĨ": 7226,
      "ä½łåľ¨": 7227,
      "æİ¥åĪ°": 7228,
      "åıĹæįŁ": 7229,
      "åįģè¶³": 7230,
      "åŁİéķĩ": 7231,
      "æķĻèĤ²éĥ¨": 7232,
      "çŀŃ": 7233,
      "çļĦæīĢæľī": 7234,
      "å¼ķåħ¥": 7235,
      "ãĤī": 7236,
      "çļĦè¡Įä¸º": 7237,
      "ç¬¼": 7238,
      "åŃķå¦ĩ": 7239,
      "%ãĢģ": 7240,
      "åİĮ": 7241,
      "è¿ĺå°Ĩ": 7242,
      "ä¾ĽåºĶåķĨ": 7243,
      "up": 7244,
      "ä¸ĭä¾Ĩ": 7245,
      "å¤©ä½¿": 7246,
      "å®ŀä¹ł": 7247,
      "è°Ĭ": 7248,
      "çķĮçļĦ": 7249,
      "éĺŁåĳĺ": 7250,
      "è¯īè®¼": 7251,
      "åĨĴéĻ©": 7252,
      "äºĨåĲ§": 7253,
      "å¯¹åħ¶": 7254,
      "åķĨåºĹ": 7255,
      "ä¸įè§ģ": 7256,
      "é¢Ĩåıĸ": 7257,
      "çİ©å¼Ħ": 7258,
      "åıĤæķ°": 7259,
      "è½»è½»": 7260,
      "æĭħå½ĵ": 7261,
      "èµĮåįļ": 7262,
      "å±ķè§Ī": 7263,
      "å»ºéĢł": 7264,
      "çŃĽ": 7265,
      "æĺİå¤©": 7266,
      "åĭŀ": 7267,
      "å¤´çļĦ": 7268,
      "æĺ¯ä¸Ģå®¶": 7269,
      "èı²å¾ĭ": 7270,
      "èµ¶ç´§": 7271,
      "App": 7272,
      "ik": 7273,
      "Ġv": 7274,
      "ç«Ń": 7275,
      "ç¤İ": 7276,
      "èĦ¾": 7277,
      "è¯¥åħ¬åı¸": 7278,
      "åĨ¬åŃ£": 7279,
      "éĢļçĶ¨": 7280,
      "èº«é«Ķ": 7281,
      "çº¿çļĦ": 7282,
      "å¤ªå¹³": 7283,
      "åĲĥçļĦ": 7284,
      "è¿Ļä¸ĢçĤ¹": 7285,
      "è¿Ļå®¶": 7286,
      "ä½łä¼ļ": 7287,
      "æ¯ıæľĪ": 7288,
      "çĻ¾ä¸ĩ": 7289,
      "èĭ¥æĺ¯": 7290,
      "èªł": 7291,
      "ä¹ĺå®¢": 7292,
      "æĩĤå¾Ĺ": 7293,
      "èµĮåľº": 7294,
      "è¡·": 7295,
      "å°ıç©´": 7296,
      "ä¸»æµģ": 7297,
      "åĬłå¯Ĩ": 7298,
      "åŁºç¤İ": 7299,
      "æī¹è¯Ħ": 7300,
      "IC": 7301,
      "bb": 7302,
      "çĶ¨æĪ¶": 7303,
      "åľ°è¯´": 7304,
      "é«ĺè·Ł": 7305,
      "çł¸": 7306,
      "å¼ºåº¦": 7307,
      "çĶ³è«ĭ": 7308,
      "ç»ıéĶĢåķĨ": 7309,
      "å°±è¢«": 7310,
      "ä¸»æ¼Ķ": 7311,
      "æķĻæĿĲ": 7312,
      "ç¨İåĬ¡": 7313,
      "æī¯": 7314,
      "åİĺ": 7315,
      "åĲİæľŁ": 7316,
      "äºĮæ¬¡": 7317,
      "è¯»èĢħ": 7318,
      "è¿ĺä¸į": 7319,
      "çĿĢåĬĽ": 7320,
      "åħļå»º": 7321,
      "ä¼Łå¤§": 7322,
      "åĬłæ²¹": 7323,
      "æīįä¼ļ": 7324,
      "çİĩåħĪ": 7325,
      "å¯¿åĳ½": 7326,
      "æĺŃ": 7327,
      "æģ¼": 7328,
      "éĺ²æ°´": 7329,
      "æ±¡æ°´": 7330,
      "txt": 7331,
      "è½¿": 7332,
      "å¤´åıĳ": 7333,
      "EC": 7334,
      "ç¾İå°ĳå¥³": 7335,
      "çĭ®": 7336,
      "é©¬åħĭ": 7337,
      "å¯¦çı¾": 7338,
      "çĶŁæĹ¥": 7339,
      "æľŁéĸĵ": 7340,
      "å«Įçĸĳ": 7341,
      "èĩªè§ī": 7342,
      "ä¸»åĬŀ": 7343,
      "åªļ": 7344,
      "å®³æĢķ": 7345,
      "æĿ±è¥¿": 7346,
      "æ³Į": 7347,
      "å°ıç¨ĭåºı": 7348,
      "åħ¨ä¸ĸçķĮ": 7349,
      "çĶµæºĲ": 7350,
      "çĦ¶å¾Į": 7351,
      "çĻ½èĻİ": 7352,
      "è¥¿çıŃ": 7353,
      "æĮĩåįĹ": 7354,
      "åħļä¸Ńå¤®": 7355,
      "å¯¦éļĽ": 7356,
      "åĮĨ": 7357,
      "ç¨»": 7358,
      "äººæ°ĳæĶ¿åºľ": 7359,
      "æ¬§çĽŁ": 7360,
      "åĲĮåŃ¦ä»¬": 7361,
      "åĬĿ": 7362,
      "è¡«": 7363,
      "ä¾¿æį·": 7364,
      "ãĤ¯": 7365,
      "åŃ¸æł¡": 7366,
      "æµªæ¼«": 7367,
      "çĿ¡è§ī": 7368,
      "æĪªæŃ¢": 7369,
      "ä¼ļåĦ¿": 7370,
      "åŃ¦åİĨ": 7371,
      "ä¸īæĺŁ": 7372,
      "éİĸ": 7373,
      "ç¾İäºº": 7374,
      "ç´łäºº": 7375,
      "å·´é»İ": 7376,
      "ä¸Ģå¤§": 7377,
      "æĸ¥": 7378,
      "æĹ¬": 7379,
      "ä¼ļæīĢ": 7380,
      "æħ®": 7381,
      "æ¶ĪéĻ¤": 7382,
      "åĩĢåĪ©æ¶¦": 7383,
      "AC": 7384,
      "Ġ17": 7385,
      "çļĦå¥³": 7386,
      "å¹´åĪĿ": 7387,
      "éĽ»è¦ĸ": 7388,
      "æ¯ķä¸ļçĶŁ": 7389,
      "æĶ¾æĿ¾": 7390,
      "........": 7391,
      "éĩįè¦ģçļĦæĺ¯": 7392,
      ",,": 7393,
      "çİ°æľī": 7394,
      "åĨħå¿ĥ": 7395,
      "åı£çĪĨ": 7396,
      "æĮĩå®ļ": 7397,
      "ä¼łæī¿": 7398,
      "åľŁè±ª": 7399,
      "æĮĳéĢī": 7400,
      "ä¸Ńç¾İ": 7401,
      "ä»¥ä¾¿": 7402,
      "åŃ¦ä½į": 7403,
      "å«©æ¨¡": 7404,
      "è¥¿çıŃçīĻ": 7405,
      "ä¸Ģå¯¹": 7406,
      "åº¸": 7407,
      "ä½ľå®¶": 7408,
      "ä½ĵçļĦ": 7409,
      "åĳ¨æľ«": 7410,
      "éªļéĢ¼": 7411,
      "æģĲæĢķ": 7412,
      "çļ±": 7413,
      "åĴĮç¤¾ä¼ļ": 7414,
      "æŀ«": 7415,
      "ä¹Łåı¯": 7416,
      "è±¹": 7417,
      "çłĶè®¨": 7418,
      "åĪĿå¿ĥ": 7419,
      "äº§çĶŁçļĦ": 7420,
      "æ·ĺæ±°": 7421,
      "AP": 7422,
      "è¿Ļä¹Ł": 7423,
      "æľŁæľĽ": 7424,
      "ä½ĨæĪĳ": 7425,
      "æ¡Ĳ": 7426,
      "æīĵçĶµè¯Ŀ": 7427,
      "æł¼å¼ı": 7428,
      "å¸Ĥåľºä¸Ĭ": 7429,
      "çĳ°": 7430,
      "éļĲæĤ£": 7431,
      "ä¸ĢåĲĮ": 7432,
      "é£¾": 7433,
      "çİ°ä»£åĮĸ": 7434,
      "ä½£": 7435,
      "ç§ī": 7436,
      "å¤ĸè§Ĥ": 7437,
      "çĪ±å¥½": 7438,
      "æĲŃå»º": 7439,
      "æ¶¨å¹ħ": 7440,
      "æ¾³å¤§åĪ©äºļ": 7441,
      "ä¸Ģç¬ĳ": 7442,
      "çľĭåĩº": 7443,
      "ãģį": 7444,
      "Ġ...": 7445,
      "æŃĩ": 7446,
      "ä¸ĵçĶ¨": 7447,
      "è§Ĥå¿µ": 7448,
      "å¥¶å¥¶": 7449,
      "çĳ¶": 7450,
      "å¼Łå¼Ł": 7451,
      "62": 7452,
      "73": 7453,
      "ly": 7454,
      "æĺ¯å¾Ī": 7455,
      "éĩįå¤į": 7456,
      "æķĻç¨ĭ": 7457,
      "è´Łæĭħ": 7458,
      "åľ°åĮºçļĦ": 7459,
      "79": 7460,
      "äºĨåĩł": 7461,
      "è¡Įé©¶": 7462,
      "æ°´åį°": 7463,
      "æ¨¡åĿĹ": 7464,
      "éħĴåĲ§": 7465,
      "å¥ĩæĢª": 7466,
      "LED": 7467,
      "åħ¨æĸ°çļĦ": 7468,
      "çİ°è´§": 7469,
      "è¾ĥé«ĺ": 7470,
      "çķĻåľ¨": 7471,
      "å¹«åĬ©": 7472,
      "ry": 7473,
      "éĽĩ": 7474,
      "çŃīå¤ļ": 7475,
      "åĮĸå·¥": 7476,
      "æĽ´å¤§": 7477,
      "å¡ĺ": 7478,
      "ç»Īç«¯": 7479,
      "æŃĮæĽ²": 7480,
      "æĳĺè¦ģ": 7481,
      "è¢«äºº": 7482,
      "çī¹åĨĻ": 7483,
      "æµĭéĩı": 7484,
      "éĨĩ": 7485,
      "åįĸå®¶": 7486,
      "Ġäºº": 7487,
      "çļĦç¥ŀ": 7488,
      "éľī": 7489,
      "æĵº": 7490,
      "ra": 7491,
      "å¦ŀ": 7492,
      "ç¾İèģĶåĤ¨": 7493,
      "éĵŃ": 7494,
      "çľģçº§": 7495,
      "è¦ģåľ¨": 7496,
      "éĢīä¸¾": 7497,
      "æĳĶ": 7498,
      "ç¶ĵé©Ĺ": 7499,
      "éĢıéģİ": 7500,
      "éģ©åĲĪ": 7501,
      "æĵģæľī": 7502,
      "Pé«ĺæ¸ħ": 7503,
      "æľīåºı": 7504,
      "ä½ľæĸĩ": 7505,
      "ãĥ©": 7506,
      "éŁ³æ¨Ĥ": 7507,
      "ç®Ĺæ³ķ": 7508,
      "å®ĩå®Ļ": 7509,
      "Ġa": 7510,
      "çļĦæ¸¸æĪı": 7511,
      "è¡¬": 7512,
      "éĿŀæ´²": 7513,
      "æĭįçħ§": 7514,
      "æ¿Ģåıĳ": 7515,
      "è¿Ŀçºª": 7516,
      "é¬¥": 7517,
      "ä¸Ģåı¥": 7518,
      "æ²«": 7519,
      "å¯¹æİ¥": 7520,
      "å¼Ģå¹ķ": 7521,
      "å¾Ĺå¾Ī": 7522,
      "æĿĲè´¨": 7523,
      "ack": 7524,
      "ç¶ľåĲĪ": 7525,
      "Ġä¸ŃåĽ½": 7526,
      "ä¸Ģæī¹": 7527,
      "ä¸įåĥħ": 7528,
      "ä¸ĩä¸ª": 7529,
      "åĬŁçİĩ": 7530,
      "æķ°åŃĹåĮĸ": 7531,
      "å¿½çĦ¶": 7532,
      "æľīéĹľ": 7533,
      "è¡Ķ": 7534,
      "å°ıæĻĤ": 7535,
      "åº¦åģĩ": 7536,
      "æľŁéĻĲ": 7537,
      "çħĮ": 7538,
      "æ¶Īæ¯Ĵ": 7539,
      "çº¤ç»´": 7540,
      "äººå¿ĥ": 7541,
      "åħ¨æĸ¹ä½į": 7542,
      "ä»·éĴ±": 7543,
      "çĨĻ": 7544,
      "ç¦»éĢĢä¼ĳ": 7545,
      "èģļéĽĨ": 7546,
      "æī©å±ķ": 7547,
      "ä¾µæĿĥ": 7548,
      "ç£ģåĬĽ": 7549,
      "çļĦé£İ": 7550,
      "åĮł": 7551,
      "åĬŁå¤«": 7552,
      "æįŁå®³": 7553,
      "ä¸įå®¹æĺĵ": 7554,
      "å¤ļå¤ļ": 7555,
      "ä¾Ŀæīĺ": 7556,
      "æºĸåĤĻ": 7557,
      "çīĪæĿĥæīĢæľī": 7558,
      "ä¸İæŃ¤åĲĮæĹ¶": 7559,
      "çļĦé¦ĸ": 7560,
      "å¯ŀ": 7561,
      "æĦ¤": 7562,
      "å¨Ľ": 7563,
      "åİ¦éĹ¨": 7564,
      "æ¼Ķè®²": 7565,
      "çŃ¾ç½²": 7566,
      "äºĨåĲĹ": 7567,
      "éĩįéĩı": 7568,
      "éĸĥ": 7569,
      "ãĤĴ": 7570,
      "åĳ½è¿Ĳ": 7571,
      "åįĢåŁŁ": 7572,
      "åŁºç¡Ģè®¾æĸ½": 7573,
      "AD": 7574,
      "ä¸ĳ": 7575,
      "ä¸ĢåįĬ": 7576,
      "å··": 7577,
      "ä¸īåĽ½": 7578,
      "è¥¿äºļ": 7579,
      "ä¸įæŃ¢": 7580,
      "æļĤæĹ¶": 7581,
      "åħ¬å®īå±Ģ": 7582,
      "éĵ¶æ²³": 7583,
      "èĤīæ£Ĵ": 7584,
      "æ¯Ķçī¹å¸ģ": 7585,
      "åīįæľŁ": 7586,
      "å¸¸å§Ķ": 7587,
      "ç©ºå§Ĳ": 7588,
      "è¾ħå¯¼": 7589,
      "Ġ9": 7590,
      "çļĦçļĦ": 7591,
      "ç²¾å¿ĥ": 7592,
      "éĥ½æ²¡": 7593,
      "ä½ıå®¿": 7594,
      "å®īåħ¨çĶŁäº§": 7595,
      "çĳŁ": 7596,
      "åħ¸åŀĭ": 7597,
      "çļĦåħī": 7598,
      "åħĨ": 7599,
      "æ©Łæ§ĭ": 7600,
      "ç¿»è¯ĳ": 7601,
      "St": 7602,
      "åĽŀäºĭ": 7603,
      "æħ¶": 7604,
      "ç£Ĭ": 7605,
      "æ²Ļçī¹": 7606,
      "èļĢ": 7607,
      "åĩĮæĻ¨": 7608,
      "éģĤ": 7609,
      "æĸ°é²ľ": 7610,
      "æĥħèī²": 7611,
      "ä¿ĿèŃ·": 7612,
      "æĲĸ": 7613,
      "æĹ©æľŁ": 7614,
      "æ¸Ĳæ¸Ĳ": 7615,
      "åı¯æĥľ": 7616,
      "ãģ¿": 7617,
      "åıįå¤į": 7618,
      "çļĩå¸Ŀ": 7619,
      "åľĺéļĬ": 7620,
      "å¾µ": 7621,
      "å¤§äºº": 7622,
      "å¥½å¤Ħ": 7623,
      "çĲĨäºĭ": 7624,
      "åįıä½ľ": 7625,
      "èĽ®": 7626,
      "ç§įç±»": 7627,
      "å¤įåĪ¶": 7628,
      "çİĦæľº": 7629,
      "çİ«": 7630,
      "ç¬¬ä¸ĢæĹ¶éĹ´": 7631,
      "è¼©": 7632,
      "æŀľçĦ¶": 7633,
      "è©ŀ": 7634,
      "ä¹°åįĸ": 7635,
      "éĽ»åŃĲ": 7636,
      "éĹľä¿Ĥ": 7637,
      "æĪĳåĢĳçļĦ": 7638,
      "èĪĨ": 7639,
      "å¸¸è§Ħ": 7640,
      "é¡¹çĽ®çļĦ": 7641,
      "è«¾": 7642,
      "èį£èĢĢ": 7643,
      "å®¿èĪį": 7644,
      "èĤĨ": 7645,
      "è©³": 7646,
      "ç¬ĳäºĨ": 7647,
      "é¸¡èĽĭ": 7648,
      "è³¼è²·": 7649,
      "ä¸Ļ": 7650,
      "åĬĽåĴĮ": 7651,
      "ä½ĵä¼ļ": 7652,
      "æīĭä¸Ń": 7653,
      "æĻ¯è§Ĥ": 7654,
      "ä¸ŃåĽ½çī¹èī²ç¤¾ä¼ļä¸»ä¹ī": 7655,
      "çºº": 7656,
      "è¿ĽäºĨ": 7657,
      "æįı": 7658,
      "çĶ±æĸ¼": 7659,
      "åĲĪä½ľä¼Ļä¼´": 7660,
      "Ġ16": 7661,
      "å¤§åĵ¥": 7662,
      "åĨ¥": 7663,
      "æĮ£": 7664,
      "æ´½": 7665,
      "å¸¦æĿ¥äºĨ": 7666,
      "ev": 7667,
      "åľ¨ç¾İåĽ½": 7668,
      "ç»Ļä»ĸ": 7669,
      "sm": 7670,
      "æķĹ": 7671,
      "ä½ľé£İ": 7672,
      "çī©èµĦ": 7673,
      "æİ¥å¾ħ": 7674,
      "çŃĸåĪĴ": 7675,
      "åŃĺåľ¨çļĦ": 7676,
      "ä¸įä»ħä»ħ": 7677,
      "Ġç¬¬": 7678,
      "ä¸ºä½ł": 7679,
      "å¦ĤåĲĮ": 7680,
      "å¹³å¸¸": 7681,
      "éĺ²çĸ«": 7682,
      "æĳĦå½±å¸Ī": 7683,
      "DP": 7684,
      "ãĢģâĢľ": 7685,
      "åľ¨ä¸Ģä¸ª": 7686,
      "æĸĩçī©": 7687,
      "çĹĺ": 7688,
      "ãģ¡": 7689,
      "èĮħ": 7690,
      "æ±ºå®ļ": 7691,
      "åĭ¾å¼ķ": 7692,
      "æĮĸæİĺ": 7693,
      "æĸĮ": 7694,
      "åĪ°æĿ¥": 7695,
      "å¦Ĥæŀľæĺ¯": 7696,
      "èĨł": 7697,
      "å°±æľĥ": 7698,
      "æ´Ĵ": 7699,
      "æıĲåĩºçļĦ": 7700,
      "ä¸īäºº": 7701,
      "æ°ĳéĹ´": 7702,
      "æ¸¸æ³³": 7703,
      "å¾®å¾®": 7704,
      "ç£ħ": 7705,
      "å¹¿ä¸ľçľģ": 7706,
      "å¤§ç¥ŀ": 7707,
      "ä¸ĬéĹ¨": 7708,
      "ä»¥ä¾Ĩ": 7709,
      "æĹłéľĢ": 7710,
      "å¥¹åĢĳ": 7711,
      "åŃ©åŃĲä»¬": 7712,
      "éĸ±è®Ģ": 7713,
      "lay": 7714,
      "æ¯Ķäºļ": 7715,
      "å¢ŀåĢ¼": 7716,
      "ä¸ľåįĹ": 7717,
      "ä¸Ģå¸¦ä¸Ģè·¯": 7718,
      "çļĦä½įç½®": 7719,
      "æµĳ": 7720,
      "æĽ´å¤§çļĦ": 7721,
      "æĪĳä»¬è¦ģ": 7722,
      "åĲ¬è¯´": 7723,
      "å¿ĺè®°": 7724,
      "æĨ¾": 7725,
      "æĺĶ": 7726,
      "äºĨä»ĸ": 7727,
      "ä¸ĭä¸ĢæŃ¥": 7728,
      "è®¾è®¡å¸Ī": 7729,
      "èĵ¬": 7730,
      "å¤ĸéĥ¨": 7731,
      "éģİåİ»": 7732,
      "ç»´çĶŁç´ł": 7733,
      "åĺ¿": 7734,
      "ç¸¾": 7735,
      "ä¸įåĪ©": 7736,
      "ä¸ºæŃ¤": 7737,
      "è¿Ļç±»": 7738,
      "åıįå¼¹": 7739,
      "å¡µ": 7740,
      "æ´»åĬ¨çļĦ": 7741,
      "è´£ä»»ç¼ĸè¾ĳ": 7742,
      "éĢĶå¾Ħ": 7743,
      "æĽ¿ä»£": 7744,
      "éıĪ": 7745,
      "è¿ĽæĶ»": 7746,
      "çľŁçļĦæĺ¯": 7747,
      "opyright": 7748,
      "çļĦåŁºç¡Ģä¸Ĭ": 7749,
      "Ġg": 7750,
      "æīĶ": 7751,
      "æĪĳä»¬å°Ĩ": 7752,
      "åıĳçĶŁäºĨ": 7753,
      "è¯¢éĹ®": 7754,
      "æ°ĳèĲ¥": 7755,
      "åįģåĽĽ": 7756,
      "æŀģéĢŁ": 7757,
      "çĩĴ": 7758,
      "åıĸå¾ĹäºĨ": 7759,
      "æ¢Ŀä»¶": 7760,
      "AS": 7761,
      "åĲ³": 7762,
      "ä»¥æŃ¤": 7763,
      "é«ĺå³°": 7764,
      "æį§": 7765,
      "åĽŀæĬ¥": 7766,
      "ä¼ĺçĤ¹": 7767,
      "æĿĥå¨ģ": 7768,
      "ç¼ĸçłģ": 7769,
      "èĽĭç³ķ": 7770,
      "åĮ¹éħį": 7771,
      "åĬĳ": 7772,
      "æĪĳä¼ļ": 7773,
      "åĵ¼": 7774,
      "å¤ļå¹´çļĦ": 7775,
      "å¨ģå°¼æĸ¯": 7776,
      "æľīåĬ©äºİ": 7777,
      "Ġ13": 7778,
      "ä¸«": 7779,
      "èı²å¾ĭå®¾": 7780,
      "å¹¶æľª": 7781,
      "ä¸¤ä½į": 7782,
      "çİĭèĢħ": 7783,
      "æľĥèŃ°": 7784,
      "äººæ°ĳåħ±åĴĮåĽ½": 7785,
      "å³»": 7786,
      "è¯ĬæĸŃ": 7787,
      "çļĦç²¾ç¥ŀ": 7788,
      "èĬĤå¥ı": 7789,
      "åĬ©çĲĨ": 7790,
      "äº®çĽ¸": 7791,
      "å½¢æĪĲäºĨ": 7792,
      "å®łçī©": 7793,
      "åĽ½éĺ²": 7794,
      "éĥ¨éĸĢ": 7795,
      "æĹłçº¿": 7796,
      "æĬķç¥¨": 7797,
      "å·´è¥¿": 7798,
      "æĺ¯è°ģ": 7799,
      "åı¯åľ¨": 7800,
      "ç«ĭåľº": 7801,
      "æľªèĥ½": 7802,
      "åħĭæĸ¯": 7803,
      "çĨ¬": 7804,
      "ess": 7805,
      "æİīäºĨ": 7806,
      "ĠSt": 7807,
      "èĩªæ²»åĮº": 7808,
      "TO": 7809,
      "Ġä¸į": 7810,
      "ä¸Ģåı£": 7811,
      "ä¸Ģçķª": 7812,
      "å¤ļæķ°": 7813,
      "ä¹ĭåĬĽ": 7814,
      "éĤ£å°±æĺ¯": 7815,
      "å¤įåĲĪ": 7816,
      "æ¿ĢåĬ±": 7817,
      "æµªè´¹": 7818,
      "éĻĮçĶŁ": 7819,
      "åľ¨éĤ£": 7820,
      "ä¸įå¯¹": 7821,
      "éĨ«éĻ¢": 7822,
      "åª³å¦ĩ": 7823,
      "çļĦä¸ĸçķĮ": 7824,
      "å°ıåŀĭ": 7825,
      "èĤ¢": 7826,
      "çľĭåĲĳ": 7827,
      "å¼ºåĪ¶": 7828,
      "åĩĢåĮĸ": 7829,
      "ä¸ĢçĶŁ": 7830,
      "éĿ¢è¯ķ": 7831,
      "ãĤĮ": 7832,
      "çŃ¾çº¦": 7833,
      "ä½ľæĪĺ": 7834,
      "éģĵçĲĨ": 7835,
      "å¿«æĴŃ": 7836,
      "æľįåĬ¡çļĦ": 7837,
      "é¡¾éĹ®": 7838,
      "åĳĬè¯īè®°èĢħ": 7839,
      "è¿Ļéĥ¨": 7840,
      "äºĶæľĪ": 7841,
      "éļ¾éģĵ": 7842,
      "è¿Ļæĺ¯ä¸Ģä¸ª": 7843,
      "éŁĵåľĭ": 7844,
      "ç»ıçºª": 7845,
      "æĪ¿ä»·": 7846,
      "ä»Ģä¹Īæĺ¯": 7847,
      "åĽ¢ä½ĵ": 7848,
      "äº¤æĺĵæīĢ": 7849,
      "ES": 7850,
      "GB": 7851,
      "Ġ14": 7852,
      "ä¸ĬæĿ¥": 7853,
      "æĪĳä»¬åı¯ä»¥": 7854,
      "è§ģåĪ°": 7855,
      "å¸®å¿Ļ": 7856,
      "éĢłæĪĲçļĦ": 7857,
      "ä¸Ńåħ±ä¸Ńå¤®": 7858,
      "çļĦè¿ĩç¨ĭ": 7859,
      "å·¢": 7860,
      "ä¸Ńä»ĭ": 7861,
      "æĸ°äºº": 7862,
      "åĪĨç¦»": 7863,
      "æįī": 7864,
      "å°ĳæķ°": 7865,
      "æłĭ": 7866,
      "ç½ķ": 7867,
      "éĤ±": 7868,
      "ä¸īåįĥ": 7869,
      "ä¿¡èªī": 7870,
      "çī¹æĸ¯": 7871,
      "äºīè®®": 7872,
      "ä¸Ģæ®µæĹ¶éĹ´": 7873,
      "æľīæľº": 7874,
      "åĴ¸": 7875,
      "éĸī": 7876,
      "èĳ¬": 7877,
      "ĠU": 7878,
      "ĠçĻ½": 7879,
      "åĲģ": 7880,
      "ä¸Ńå¹´": 7881,
      "åħ¨åľĭ": 7882,
      "è¿ĩäºİ": 7883,
      "çĦ°": 7884,
      "å¿«æį·": 7885,
      "äºīåıĸ": 7886,
      "åĤ³çµ±": 7887,
      "å¦³": 7888,
      "åįķåıĮ": 7889,
      "å±ĢéĿ¢": 7890,
      "ä»ĺåĩº": 7891,
      "æĹ¨åľ¨": 7892,
      "éĶĪéĴ¢": 7893,
      "åľ¨åĮĹäº¬": 7894,
      "éĹ¯": 7895,
      "æ·ĳ": 7896,
      "ãĥ¬": 7897,
      "è§£è¯»": 7898,
      "æ®µæĹ¶éĹ´": 7899,
      "ç§¯åĪĨ": 7900,
      "çı¾åł´": 7901,
      "ice": 7902,
      "çļĦæµ·": 7903,
      "æĮ½": 7904,
      "è¢į": 7905,
      "è®¤å®ļ": 7906,
      "éĺ²æ²»": 7907,
      "æĹ©åľ¨": 7908,
      "éĢĤçĶ¨äºİ": 7909,
      "ort": 7910,
      "ç«ŀäºīåĬĽ": 7911,
      "çļĦçĽ¸åħ³": 7912,
      "ä»¥å¤ĸ": 7913,
      "åĳ½ä»¤": 7914,
      "æ©ĭ": 7915,
      "éĥĳå·ŀ": 7916,
      "ng": 7917,
      "æĥŁ": 7918,
      "æĦģ": 7919,
      "è½¬è®©": 7920,
      "æİĴéĻ¤": 7921,
      "ä½Ī": 7922,
      "åīįåĲİ": 7923,
      "åıªéľĢ": 7924,
      "èĳ±": 7925,
      "ãĥģ": 7926,
      "å§Ĩæĸ¯": 7927,
      "çłį": 7928,
      "æ¶ĪåĮĸ": 7929,
      "èŃ¦åĳĬ": 7930,
      "å´Ķ": 7931,
      "èĢģå¹´äºº": 7932,
      "äºĨå¥½": 7933,
      "æ²Ĳ": 7934,
      "éĺĲ": 7935,
      "æĻ®åıĬ": 7936,
      "æĪĲåĬŁçļĦ": 7937,
      "ç°½": 7938,
      "è²łè²¬": 7939,
      "è£Ķ": 7940,
      "ä»Ĺ": 7941,
      "å°ıä¼Ļ": 7942,
      "åĸ»": 7943,
      "çĪ±çĪ±": 7944,
      "åįıåķĨ": 7945,
      "è±ªåįİ": 7946,
      "çľĭèĳĹ": 7947,
      "æŃ¡è¿İ": 7948,
      "çĻ¾å®¶ä¹Ĳ": 7949,
      "ÃĹ": 7950,
      "ĠæĹ¥": 7951,
      "ä¸Ģèµ·æĿ¥": 7952,
      "çĶ¨éĢĶ": 7953,
      "å¯¹å¾ħ": 7954,
      "ä¸¤å²¸": 7955,
      "æİĴåĪĹ": 7956,
      "æī¿åıĹ": 7957,
      "2006": 7958,
      "ä»ªåĻ¨": 7959,
      "Ġæĺ¯": 7960,
      "å®ŀçĶ¨": 7961,
      "ä¸Ģä¸ªæľĪ": 7962,
      "æ¡©": 7963,
      "åĳ³çļĦ": 7964,
      "éĻĨç»Ń": 7965,
      "è´¯å½»èĲ½å®ŀ": 7966,
      "çľĭæ³ķ": 7967,
      "æĢ§è´¨": 7968,
      "ä¼łåªĴ": 7969,
      "æ²Īéĺ³": 7970,
      "å¨Ľæ¨Ĥ": 7971,
      "åĿª": 7972,
      "ãĤ³": 7973,
      "å¥¶èĮ¶": 7974,
      "çļĦè¿ĩç¨ĭä¸Ń": 7975,
      "å¾Īä¹ħ": 7976,
      "èĪ¬çļĦ": 7977,
      "åĪļæīį": 7978,
      "åĭĩå£«": 7979,
      "II": 7980,
      "gle": 7981,
      "è¶´": 7982,
      "ç½ĳæĺĵ": 7983,
      "è¯´äºĨ": 7984,
      "æ´»è·ĥ": 7985,
      "éĹ®éģĵ": 7986,
      "è¶ħéģİ": 7987,
      "éħįéĢģ": 7988,
      "è¯ķåĽ¾": 7989,
      "çĶŁæĪĲ": 7990,
      "æĹ¶æĬ¥": 7991,
      "åıĺéĿ©": 7992,
      "æ¹¯": 7993,
      "åģ·åģ·": 7994,
      "å¯Ĥå¯ŀ": 7995,
      "çļĦåı¯": 7996,
      "ä¸Ģè¡Į": 7997,
      "æľĢä¸º": 7998,
      "åĢŁåĬ©": 7999,
      "çĸ¼çĹĽ": 8000,
      "ĠãĢģ": 8001,
      "çļĦæł¸å¿ĥ": 8002,
      "ä¹Łè¢«": 8003,
      "ç¾İèħ¿": 8004,
      "çĶµåĻ¨": 8005,
      "å¤ĩçĶ¨": 8006,
      "ãĥŀ": 8007,
      "åľĭåħ§": 8008,
      "ç¥Ŀç¦ı": 8009,
      "èĥ½åľ¨": 8010,
      "æĬ¥èŃ¦": 8011,
      "åĦ²": 8012,
      "æ¸¸æĪıä¸Ń": 8013,
      "é¡¶çº§": 8014,
      "ä¼łç»ŁçļĦ": 8015,
      "Ġéĩĳ": 8016,
      "è½¦ä¸Ĭ": 8017,
      "çº¢åĮħ": 8018,
      "MB": 8019,
      "æĿī": 8020,
      "âĢĿ(": 8021,
      "çĶŁèĤĸ": 8022,
      "é«ĺéĽĦ": 8023,
      "è¶Ļ": 8024,
      "æ¶©": 8025,
      "ç¥¸": 8026,
      "æĹłå¥Ī": 8027,
      "ä¸ľèİŀ": 8028,
      "å¯Ĩå°ģ": 8029,
      "åĩĳ": 8030,
      "åĩºæīĭ": 8031,
      "åħ¶ä½Ļ": 8032,
      "å¤ĸåĮħ": 8033,
      "æºľ": 8034,
      "æ»ŀ": 8035,
      "æĵ´": 8036,
      "éĵ¸": 8037,
      "è´¨çĸĳ": 8038,
      "èĮ«": 8039,
      "çį¸": 8040,
      "ç¨ĭåº¦ä¸Ĭ": 8041,
      "çļĦåĬŁèĥ½": 8042,
      "å¥³ä¸»æĴŃ": 8043,
      "éĢĤçĶ¨": 8044,
      "èĴĭ": 8045,
      "æĪĳå¾Ī": 8046,
      "å¯¼å¸Ī": 8047,
      "çĶ¨æĪ·çļĦ": 8048,
      "å¯»æ±Ĥ": 8049,
      "å¤©çĦ¶æ°Ķ": 8050,
      "çĽ¸çķ¶": 8051,
      "çĽ®æ¨Ļ": 8052,
      "è¨º": 8053,
      "è¿Ļä¸ªéĹ®é¢ĺ": 8054,
      "ç¾İæľ¯": 8055,
      "æ·±æ·±": 8056,
      "åĲĪçº¦": 8057,
      "çĽ¸ç»ĵåĲĪ": 8058,
      "é¥¿": 8059,
      "äº²èĩª": 8060,
      "è¡¥åģ¿": 8061,
      "ä¾ĽåºĶéĵ¾": 8062,
      "æŃ£ç¡®çļĦ": 8063,
      "è®©ä»ĸä»¬": 8064,
      "é¥²": 8065,
      "åĵįåºĶ": 8066,
      "åªĴé«Ķ": 8067,
      "è¨ĪåĬĥ": 8068,
      "çĶµè§Ĩåī§": 8069,
      "ç¬¬ä¸ĥ": 8070,
      "åħĥçļĦ": 8071,
      "éĺ¿å§¨": 8072,
      "åĪĽå§ĭäºº": 8073,
      "çļĦèĬ±": 8074,
      "å®ª": 8075,
      "åĲĪéĩĳ": 8076,
      "ä¼łè¯´": 8077,
      "ãĥ¡": 8078,
      "éĹľéįµ": 8079,
      "ä¹ĭå¤Ħ": 8080,
      "å¾Ĺä»¥": 8081,
      "çŃīéĹ®é¢ĺ": 8082,
      "æµģéĢļ": 8083,
      "èİ¹": 8084,
      "åįĹæĸ¹": 8085,
      "ç®ĢçĽ´": 8086,
      "è°ĪåĪ¤": 8087,
      "æŃ·åı²": 8088,
      "PM": 8089,
      "å°¬": 8090,
      "ä¸įæĩĤ": 8091,
      "å±ł": 8092,
      "éģĵçļĦ": 8093,
      "æĮĩç¤º": 8094,
      "ç¬ĳçĿĢ": 8095,
      "ä¾Ŀèµĸ": 8096,
      "é¡¿æĹ¶": 8097,
      "çļĦçĽ®çļĦ": 8098,
      "å·¥æ¥Ń": 8099,
      "åľºçļĦ": 8100,
      "æĻĤä»£": 8101,
      "åģĩæľŁ": 8102,
      "ç§ģæľį": 8103,
      "çº¹èº«": 8104,
      "ä¸Ģæľ¬": 8105,
      "çľ¸": 8106,
      "æİ¥æĶ¶": 8107,
      "åĦĢ": 8108,
      "ãģı": 8109,
      "é¾Ļå¤´": 8110,
      "æµıè§ĪåĻ¨": 8111,
      "å¤§åľ°": 8112,
      "æł½": 8113,
      "åįķçĭ¬": 8114,
      "åŃ£èĬĤ": 8115,
      "888": 8116,
      "å®ļäºĨ": 8117,
      "åİĭç¼©": 8118,
      "æĪĸèĢħæĺ¯": 8119,
      "è´µçļĦ": 8120,
      "è¿Ļå°±": 8121,
      "æľĢåĪĿ": 8122,
      "æĴ¼": 8123,
      "ore": 8124,
      "çļĦåħ³éĶ®": 8125,
      "ä¸Ģåĳ¨": 8126,
      "é«ĺæ¸©": 8127,
      "çŃīåĪ°": 8128,
      "çŁŃä¿¡": 8129,
      "èĩªèº«çļĦ": 8130,
      "ff": 8131,
      "ĠãĢĬ": 8132,
      "åĴĮæĪĳ": 8133,
      "åĬ¨çļĦ": 8134,
      "å¼Ģåħ³": 8135,
      "å¸ĪçĶŁ": 8136,
      "èµ°åĩº": 8137,
      "éĺ²èĮĥ": 8138,
      "âĸ¼": 8139,
      "å·©": 8140,
      "æĮ«": 8141,
      "åŃ¦çļĦ": 8142,
      "èīĺ": 8143,
      "å¹¶å°Ĩ": 8144,
      "åı£ç¢ĳ": 8145,
      "åį°åĪ·": 8146,
      "å¾¡å§Ĳ": 8147,
      "ä¹ĭä¸Ĭ": 8148,
      "æģŃ": 8149,
      "æĹłæ°´åį°": 8150,
      "éĴ¥": 8151,
      "ç²¾åĬĽ": 8152,
      "å»¶ç»Ń": 8153,
      "åĴĮå°ı": 8154,
      "æĦ£": 8155,
      "çŃīåľ°": 8156,
      "å¢ħ": 8157,
      "äº¤ä»ĺ": 8158,
      "åĲĳä¸Ĭ": 8159,
      "æĮĤçīĮ": 8160,
      "ue": 8161,
      "åħ³èģĶ": 8162,
      "æĶ¾åħ¥": 8163,
      "èªĵ": 8164,
      "å®¹éĩı": 8165,
      "åĲĥäºĨ": 8166,
      "å·´å·´": 8167,
      "å»¶éķ¿": 8168,
      "è¤ĩ": 8169,
      "82": 8170,
      "èĤı": 8171,
      "è¯ŃéŁ³": 8172,
      "æķħæĦı": 8173,
      "è·¨å¢ĥ": 8174,
      "æī«æıı": 8175,
      "çĪ·çĪ·": 8176,
      "æĺ¯ä¸ºäºĨ": 8177,
      "éģº": 8178,
      "æľ¬åĳ¨": 8179,
      "çĪµ": 8180,
      "çĪº": 8181,
      "Copyright": 8182,
      "æ«": 8183,
      "åı°ä¸Ń": 8184,
      "åıĹçĽĬ": 8185,
      "è®¤çŁ¥": 8186,
      "èĲ¥æĶ¶": 8187,
      "çļĦä¸ĢåĪĩ": 8188,
      "ä»ĺæ¬¾": 8189,
      "ON": 8190,
      "æĤ¨åı¯ä»¥": 8191,
      "å±ħå®¶": 8192,
      "çģµéŃĤ": 8193,
      "ä¸ºæŃ¢": 8194,
      "è·Łè¸ª": 8195,
      "æ¥ŃåĭĻ": 8196,
      "æī¹åıĳ": 8197,
      "åł±åĳĬ": 8198,
      "æİĢ": 8199,
      "çĤ«": 8200,
      "å°ĨåĨĽ": 8201,
      "åİŁå§ĭ": 8202,
      "éĻĲè¡Į": 8203,
      "å¢ĥå¤ĸ": 8204,
      "æ¬¢ä¹Ĳ": 8205,
      "å¤ıåŃ£": 8206,
      "åħļå§Ķä¹¦è®°": 8207,
      "ç»İ": 8208,
      "åľ¨åĵª": 8209,
      "çĥĺ": 8210,
      "äºĮçº§": 8211,
      "é¢Ħçº¦": 8212,
      "æķ°æį®åºĵ": 8213,
      "è®²è§£": 8214,
      "ä»įåľ¨": 8215,
      "çĺ¾": 8216,
      "æĬ¥éģĵç§°": 8217,
      "åıĳå°Ħ": 8218,
      "ä¹ĭåľ°": 8219,
      "æ·¨": 8220,
      "ä¸īä¸Ń": 8221,
      "è¯ģå®ŀ": 8222,
      "çļĦäººçĶŁ": 8223,
      "éļ¨èĳĹ": 8224,
      "äºıæįŁ": 8225,
      "æ°¨": 8226,
      "èĢĮåĩº": 8227,
      "æĶ¶åıĸ": 8228,
      "è§Ħæł¼": 8229,
      "åĶ®ä»·": 8230,
      "çµĲæ§ĭ": 8231,
      "æĢĢçĸĳ": 8232,
      "oogle": 8233,
      "å°ıåĵ¥": 8234,
      "éĥ¡": 8235,
      "å½ĵåĪĿ": 8236,
      "éĢĻæ¬¡": 8237,
      "è¿ľç¨ĭ": 8238,
      "å¤«äºº": 8239,
      "éĽ¶éĥ¨ä»¶": 8240,
      "æ·±åľ³å¸Ĥ": 8241,
      "0755": 8242,
      "åħ¬æĸ¤": 8243,
      "çº³ç¨İ": 8244,
      "æ¯«ä¸į": 8245,
      "å¿ħè¦ģçļĦ": 8246,
      "ä¸Ģä»£": 8247,
      "åĽŀé¡¾": 8248,
      "è¥¿èĹı": 8249,
      "å¹²çĩ¥": 8250,
      "åį¿": 8251,
      "å¾Īé«ĺ": 8252,
      "èī²èī²": 8253,
      "å½ĵäºĭ": 8254,
      "çıĬ": 8255,
      "éłĵ": 8256,
      "éĩĩéĽĨ": 8257,
      "è¨Ńæĸ½": 8258,
      "ç¡ķå£«": 8259,
      "äºĮäºº": 8260,
      "å®¢è§Ĥ": 8261,
      "æ¿ĥ": 8262,
      "éĿŀå¸¸çļĦ": 8263,
      "ç¬ĶèĢħ": 8264,
      "ä¸Ńåįİäººæ°ĳåħ±åĴĮåĽ½": 8265,
      "æłª": 8266,
      "æªĶ": 8267,
      "ç¦»éĢĢä¼ĳå¹²éĥ¨": 8268,
      "Ġçİĭ": 8269,
      "åĲĪæĪĲ": 8270,
      "åĲĪèĤ¥": 8271,
      "çħİ": 8272,
      "åıĺæĢģ": 8273,
      "èĪªå¤©": 8274,
      "ç¬¬äºĮæ¬¡": 8275,
      "ç¼ºå°ĳ": 8276,
      "æĥĬåĸľ": 8277,
      "åĪĳäºĭ": 8278,
      "CEO": 8279,
      "èĢį": 8280,
      "çĥı": 8281,
      "è§£æŀĲ": 8282,
      "éĺ²å®Ī": 8283,
      "é»ĳæļĹ": 8284,
      "åĥ¹åĢ¼": 8285,
      "éłĺåŁŁ": 8286,
      "èµ°åĬ¿åĽ¾": 8287,
      "ä»£åŃķ": 8288,
      "é¢¨éļª": 8289,
      "å¤§è¿ŀ": 8290,
      "æİĽ": 8291,
      "å¤ļåĲį": 8292,
      "éĽĢ": 8293,
      "å¼Ģæĭĵ": 8294,
      "å¾ĹçŁ¥": 8295,
      "å°İèĩ´": 8296,
      "åıĥèĪĩ": 8297,
      "ä¸įéĶĪéĴ¢": 8298,
      "ä»¥åħį": 8299,
      "æľ¬è´¨": 8300,
      "ç®¡çĲĨå±Ģ": 8301,
      "æİ¢è®¨": 8302,
      "ä¿ĥéĶĢ": 8303,
      "æĳ©æĵ¦": 8304,
      "æīİå®ŀ": 8305,
      "æĲºæīĭ": 8306,
      "åįļçī©é¦Ĩ": 8307,
      "AT": 8308,
      "ä¸Ńæĸ¹": 8309,
      "å°ĨæĿ¥": 8310,
      "èĪªçıŃ": 8311,
      "ä¿ĿéĻ©åħ¬åı¸": 8312,
      "çĶµè§Ĩåı°": 8313,
      "è¶ĬæĿ¥è¶Ĭå¤ļ": 8314,
      "è´¼": 8315,
      "éĻ¤æŃ¤": 8316,
      "æľĢæĸ°ç«łèĬĤ": 8317,
      "äººäºĭ": 8318,
      "éĥ½æľĥ": 8319,
      "å§Ĭ": 8320,
      "å±Ģéĥ¨": 8321,
      "2003": 8322,
      "2005": 8323,
      "æŀ¶æŀĦ": 8324,
      "å¸¸è§ģçļĦ": 8325,
      "åı¯ä»¥è¯´": 8326,
      "äºĮç»´": 8327,
      "é©¬æĬ¥": 8328,
      "åĪ¹": 8329,
      "åĲ¼": 8330,
      "çĶ¸": 8331,
      "æľīæĹ¶åĢĻ": 8332,
      "ä¹ĭå®¶": 8333,
      "éļĻ": 8334,
      "ç¼ł": 8335,
      "åĸľçĪ±": 8336,
      "æĩĴ": 8337,
      "éĸĭå±ķ": 8338,
      "è¡¥åĬ©": 8339,
      "âĶĢ": 8340,
      "åıĳèĤ²": 8341,
      "ä½łå¥½": 8342,
      "æĦŁåĻ¨": 8343,
      "éĹ¨åºĹ": 8344,
      "åıĤèµĽ": 8345,
      "ä¸ĸçķĮçļĦ": 8346,
      "å±ĤéĿ¢": 8347,
      "åŁİå¸ĤçļĦ": 8348,
      "éĴ¢éĵģ": 8349,
      "âĪ": 8350,
      "å¼Ĭ": 8351,
      "åĪĨå½©": 8352,
      "æįĨ": 8353,
      "æĬĵå¥½": 8354,
      "ell": 8355,
      "åĽ¾ä¹¦é¦Ĩ": 8356,
      "çİ«çĳ°": 8357,
      "è¡Įç¨ĭ": 8358,
      "ä¸ĩç¾İåħĥ": 8359,
      "æ²»çĻĤ": 8360,
      "ç¼ĸåĪ¶": 8361,
      "çīĽå¥¶": 8362,
      "ä¸¥éĩįçļĦ": 8363,
      "è¦ıåĬĥ": 8364,
      "åıĥåĬł": 8365,
      "å¯¹æĪĳ": 8366,
      "éĢģåĪ°": 8367,
      "å½ķåıĸ": 8368,
      "eng": 8369,
      "çķ¶æĻĤ": 8370,
      "æľĿé²ľ": 8371,
      "äººä½ĵèīºæľ¯": 8372,
      "ä¹ĥèĩ³": 8373,
      "æŁ´æ²¹": 8374,
      "çļĦåİĨåı²": 8375,
      "çİ°çĬ¶": 8376,
      "çī¹å®ļ": 8377,
      "å·²è¢«": 8378,
      "ç¶ĵéģİ": 8379,
      "äººæ°ĳæ³ķéĻ¢": 8380,
      "å¤®è§Ĩ": 8381,
      "ä¸ŃåįĪ": 8382,
      "å¯¬": 8383,
      "ä¼ļéķ¿": 8384,
      "è¿ĩæ»¤": 8385,
      "æľĢéĩįè¦ģçļĦ": 8386,
      "æīĭçļĦ": 8387,
      "ç²¾èĭ±": 8388,
      "é¦ĸéĥ½": 8389,
      "åŃĺæ¬¾": 8390,
      "æī¿åĮħ": 8391,
      "èĤļåŃĲ": 8392,
      "æĪļ": 8393,
      "å¥³çİĭ": 8394,
      "è§£çŃĶ": 8395,
      "é¢ĺçĽ®": 8396,
      "çĥŃçº¿": 8397,
      "çł´ç¢İ": 8398,
      "è¦ıå®ļ": 8399,
      "ç§ĺä¹¦éķ¿": 8400,
      "çļĦéĢīæĭ©": 8401,
      "è¾Ł": 8402,
      "éĥ¨èĲ½": 8403,
      "äº§çī©": 8404,
      "éĴ®": 8405,
      "é£İéªļ": 8406,
      "ina": 8407,
      "åĪĿä¸Ń": 8408,
      "æī©å¼ł": 8409,
      "éªĳå£«": 8410,
      "å½±éŁ³åħĪéĶĭ": 8411,
      "()": 8412,
      "çļĦåĬĽéĩı": 8413,
      "çľŁçĽ¸": 8414,
      "æĪĺå£«": 8415,
      "é¥¥": 8416,
      "ç¿ģ": 8417,
      "åħħè¶³": 8418,
      "åĪĨåĪ«ä¸º": 8419,
      "å»£åĳĬ": 8420,
      "å¨ĥå¨ĥ": 8421,
      "çļĦä¸ī": 8422,
      "æĸ°æĬĢæľ¯": 8423,
      "æĸ°åħ´": 8424,
      "ãģĻ": 8425,
      "äº®çĤ¹": 8426,
      "åºĻ": 8427,
      "åĲĳåīį": 8428,
      "ç«ĭæ³ķ": 8429,
      "ç¯ĩæĸĩç«ł": 8430,
      "è½¨éģĵ": 8431,
      "çĭ¬çī¹çļĦ": 8432,
      "ax": 8433,
      "ä¸įå¿ħ": 8434,
      "çĲĲ": 8435,
      "ä¹Łæľĥ": 8436,
      "ç¾İå¥½çļĦ": 8437,
      "è¿ĽæĿ¥": 8438,
      "å£¤": 8439,
      "æķ´åĢĭ": 8440,
      "è¤²": 8441,
      "éĻ¶çĵ·": 8442,
      "çļĦåħ¨": 8443,
      "èĩªåĭķ": 8444,
      "åĪĨéĲĺ": 8445,
      "çº¿ç¨ĭ": 8446,
      "èĬĤçº¦": 8447,
      "ãĥĬ": 8448,
      "æļĤåģľ": 8449,
      "åıĳæĺİ": 8450,
      "ä¿Ŀæľī": 8451,
      "æĴ°": 8452,
      "èİĵ": 8453,
      "åıĭæĥħ": 8454,
      "èħķ": 8455,
      "çķĻåŃ¦": 8456,
      "æ½ľåĬĽ": 8457,
      "åĨĢ": 8458,
      "çī²": 8459,
      "åº¦åĴĮ": 8460,
      "åŃ¸éĻ¢": 8461,
      "ĠY": 8462,
      "å¤§æ°Ķ": 8463,
      "æŃª": 8464,
      "åĪ©æģ¯": 8465,
      "åĻ´": 8466,
      "éĺ²çģ«": 8467,
      "åıĮæīĭ": 8468,
      "ç·ļä¸Ĭ": 8469,
      "èķ©": 8470,
      "ä¸įå¿ĺ": 8471,
      "æĹ¥åĨħ": 8472,
      "åĮĸè§£": 8473,
      "ä¿Ŀæ¸©": 8474,
      "æĬ¥èĢĥ": 8475,
      "ãģĬ": 8476,
      "åħ¨åĽ½äººå¤§": 8477,
      "éģµå¾ª": 8478,
      "çļĦåŃ¦çĶŁ": 8479,
      "åĲĦåĽ½": 8480,
      "éĸĴ": 8481,
      "éĢĻè£¡": 8482,
      "çľ¼ä¸Ń": 8483,
      "æ½Ń": 8484,
      "åĵªå®¶": 8485,
      "PåİŁçīĪ": 8486,
      "çļĦçłĶç©¶": 8487,
      "ä¸Ĭåĳ¨": 8488,
      "è¿Ļé¡¹": 8489,
      "æľĢæĹ©": 8490,
      "å½ĵä¸ĭ": 8491,
      "è¾¹çļĦ": 8492,
      "ä¼°åĢ¼": 8493,
      "è°·æŃĮ": 8494,
      "ðŁ": 8495,
      "Ġ?": 8496,
      "äºļé©¬": 8497,
      "éļıæĦı": 8498,
      "éģŃåĪ°": 8499,
      "èıĬèĬ±": 8500,
      ":ãĢĬ": 8501,
      "äººæ°Ķ": 8502,
      "æķ·": 8503,
      "æĿ¥è®²": 8504,
      "åıĳç¥¨": 8505,
      "æĮª": 8506,
      "èĩªåĬ©": 8507,
      "ä¾ĨäºĨ": 8508,
      "éŃ¯": 8509,
      "æľīåħ³éĥ¨éĹ¨": 8510,
      "åĩĿèģļ": 8511,
      "xxx": 8512,
      "å¾ĳ": 8513,
      "åĲİæŀľ": 8514,
      "ç²¹": 8515,
      "æŃ£å¥½": 8516,
      "åıĺæĪĲäºĨ": 8517,
      "åĨĽéĺŁ": 8518,
      "éļıä¾¿": 8519,
      "å¿ĹæĦ¿èĢħ": 8520,
      "åıĳè¾¾": 8521,
      "å¼Ģè½¦": 8522,
      "è§Ĩè§Ĵ": 8523,
      "æ½¤": 8524,
      "ç¬ĳå®¹": 8525,
      "ä¸Ĭæµ·å¸Ĥ": 8526,
      "ä¸ºä¾ĭ": 8527,
      "å¸¦æľī": 8528,
      "éľĢè¦ģçļĦ": 8529,
      "è´ŃæĪ¿": 8530,
      "æĭħä¿Ŀ": 8531,
      "ha": 8532,
      "æīĴ": 8533,
      "æľ¬ç½ĳç«Ļ": 8534,
      "çľĭå¾Ĺ": 8535,
      "ä¼Ĺäºº": 8536,
      "åŁŁåĲį": 8537,
      "ç¸®": 8538,
      "ç¬Ķè®°": 8539,
      "åł±å°İ": 8540,
      "age": 8541,
      "ç¿ĺèĩĢ": 8542,
      "indow": 8543,
      "oc": 8544,
      "ĠĠ": 8545,
      "çļĦæ°Ķ": 8546,
      "ä¸Ĭè¯¾": 8547,
      "ä¾¨": 8548,
      "æ¼ĶåĶ±": 8549,
      "çŃ¾è¯ģ": 8550,
      "çļĦåĪĨ": 8551,
      "æĺĬ": 8552,
      "ä¸įåİ»": 8553,
      "é¢¤": 8554,
      "å·¥ä¼ļ": 8555,
      "æĥ³çĿĢ": 8556,
      "è¥¿çĵľ": 8557,
      "ãģĮ": 8558,
      "åĵªæĢķ": 8559,
      "ä»Ĩ": 8560,
      "åıĳèµ·": 8561,
      "çŃīå¥ĸ": 8562,
      "å®ŀè´¨": 8563,
      "çº§åĪ«": 8564,
      "éĢīé¡¹": 8565,
      "æĢ»çĲĨ": 8566,
      "æµªåı«": 8567,
      "é¹¤": 8568,
      "ä»ĸä¹Ł": 8569,
      "éĢĢæ¬¾": 8570,
      "æĸ°éĹ»ç½ĳ": 8571,
      "!!!": 8572,
      "å°ıå§Ĳå§Ĳ": 8573,
      "é´": 8574,
      "ä¸Ģéĺµ": 8575,
      "æĲħ": 8576,
      "å·®ä¸įå¤ļ": 8577,
      "éģĹäº§": 8578,
      "Ġto": 8579,
      "çĶĺèĤĥ": 8580,
      "æ²ĸ": 8581,
      "è¡¨çı¾": 8582,
      "æĹłæ¯Ľ": 8583,
      "å¤ĦçļĦ": 8584,
      "ä¼łæŁĵ": 8585,
      "å¤ªå¤ª": 8586,
      "çłĶç©¶ä¸Ńå¿ĥ": 8587,
      "è«¸": 8588,
      "æıĲé«ĺäºĨ": 8589,
      "ç»§æī¿": 8590,
      "âĨĵ": 8591,
      "ä¸ĢæľŁ": 8592,
      "å¦ĵ": 8593,
      "æĸ°å¹´": 8594,
      "éħª": 8595,
      "ä¾ĨæºĲ": 8596,
      "æ©Ļ": 8597,
      "æĸĩåĮĸçļĦ": 8598,
      "èį£èªī": 8599,
      "éļĲç§ģ": 8600,
      "hi": 8601,
      "Ġ.": 8602,
      "çļĦç»ĵæŀľ": 8603,
      "æľīä¸ĢäºĽ": 8604,
      "åĪ©çļĦ": 8605,
      "åĨ³å¿ĥ": 8606,
      "çģ«çĪĨ": 8607,
      "ç¾İåĽ½çļĦ": 8608,
      "çĵ£": 8609,
      "ity": 8610,
      "SUV": 8611,
      "å®°": 8612,
      "åĲĪå¹¶": 8613,
      "æŃ£å¦¹": 8614,
      "çº¿ç´¢": 8615,
      "å¤ªå¤§": 8616,
      "äºĶä¸ª": 8617,
      "æ±ĩçİĩ": 8618,
      "åĨ¬å¤©": 8619,
      "æª¢æŁ¥": 8620,
      "å¤§éĻ¸": 8621,
      "éĩįçĶŁ": 8622,
      "æĬĬå®ĥ": 8623,
      "èĵī": 8624,
      "ç©įæ¥µ": 8625,
      "åĨĬ": 8626,
      "åŀĭåı·": 8627,
      "åĩłåįģ": 8628,
      "ç¬ĳéģĵ": 8629,
      "æŁĲæŁĲ": 8630,
      "ä¸ĢåĿĹ": 8631,
      "äººåĢĳ": 8632,
      "åħ¬åŃĲ": 8633,
      "çŃīæĸ¹å¼ı": 8634,
      "åĽ¾åĥı": 8635,
      "å®īåħ¨çļĦ": 8636,
      "çºªæ£Ģ": 8637,
      "æŁĲç§į": 8638,
      "æĮ¯åĬ¨": 8639,
      "è¾Ľèĭ¦": 8640,
      "å¸ĺ": 8641,
      "ä½łçŁ¥éģĵ": 8642,
      "å¤ĸåįĸ": 8643,
      "ä¿¡æīĺ": 8644,
      "èĨĿ": 8645,
      "çļĦå¤©": 8646,
      "è¦ģæĥ³": 8647,
      "ä¾į": 8648,
      "ä½łæĥ³": 8649,
      "æĥħå½¢": 8650,
      "éĿĴéĿĴ": 8651,
      "ä»½é¢Ŀ": 8652,
      "æ¸¯æ¾³": 8653,
      "èº«ä»½è¯ģ": 8654,
      "æĭ¦": 8655,
      "çķľ": 8656,
      "æ³ķæ²»": 8657,
      "éķ¿åŁİ": 8658,
      "éĴĻ": 8659,
      "éĢīçĶ¨": 8660,
      "æ¢Ĺ": 8661,
      "å½¢çĬ¶": 8662,
      "åĨħå®¹çļĦ": 8663,
      "æĥħçļĦ": 8664,
      "æ¯Ķè³½": 8665,
      "å®īè£Ŀ": 8666,
      "çĥ«": 8667,
      "åıªéľĢè¦ģ": 8668,
      "ä¹³æĪ¿": 8669,
      "åĪĨæŀĲå¸Ī": 8670,
      "ä¸ĺ": 8671,
      "äºŀæ´²": 8672,
      "é¨°": 8673,
      "è°¨æħİ": 8674,
      "ä¸ŃåĮ»": 8675,
      "è¾Ĳ": 8676,
      "ç¼ºéĻ·": 8677,
      "çļĦå¤ļ": 8678,
      "çļĦåħ³ç³»": 8679,
      "æķµ": 8680,
      "åįģåħŃ": 8681,
      "å¢ŀéķ·": 8682,
      "èĬĤæĹ¥": 8683,
      "éĺµå®¹": 8684,
      "éĤªæģ¶": 8685,
      "ä¸įçĶ±": 8686,
      "æĽī": 8687,
      "åħ¥ä½ı": 8688,
      "åĢĭæľĪ": 8689,
      "éĿŀå¸¸è¯±äºº": 8690,
      "éħ¥": 8691,
      "æĦŁåĬ¨": 8692,
      "èģĶéĤ¦": 8693,
      "å¯¼å¼¹": 8694,
      "ä¹Ĳè§Ĥ": 8695,
      "ä»Ģä¹ĪæĹ¶åĢĻ": 8696,
      "åħ»èĢģä¿ĿéĻ©": 8697,
      "ower": 8698,
      "å±Ĩ": 8699,
      "ç´Ľ": 8700,
      "åıĭå¥½": 8701,
      "å¤´æĿ¡": 8702,
      "å¸ĥç½®": 8703,
      "æ¨¡æĿ¿": 8704,
      "æ¸©æŁĶ": 8705,
      "æķĮäºº": 8706,
      "çĽ¸åıį": 8707,
      "çĥ¯": 8708,
      "ä¿®æŃ£": 8709,
      "åĢĴæĺ¯": 8710,
      "700": 8711,
      "?,": 8712,
      "io": 8713,
      "æĶ¹è®Ĭ": 8714,
      "çĽĳä¼ļ": 8715,
      "å¾Īæĺ¯è¯±æĥĳåĸľæ¬¢ä¸įè¦ģéĶĻè¿ĩç¬¬": 8716,
      "61": 8717,
      "CM": 8718,
      "çļĦæĶ¯æĮģ": 8719,
      "ä¸įå®ļ": 8720,
      "ä¸ĭæĸ¹": 8721,
      "æĢ»å±Ģ": 8722,
      "ä¹ĲåĽŃ": 8723,
      "æĿĥåĬĽ": 8724,
      "ãĥĪ": 8725,
      "èİ·æĤī": 8726,
      "roid": 8727,
      "Ġ/>": 8728,
      "Ġby": 8729,
      "çļĦå¥³äºº": 8730,
      "å¼¦": 8731,
      "æĬł": 8732,
      "åĽ½åºĨ": 8733,
      "æģĴå¤§": 8734,
      "Ġ2020": 8735,
      "æĺ¯æĪĳä»¬": 8736,
      "ä¼½": 8737,
      "å¤ĸçķĮ": 8738,
      "æĸĩèīº": 8739,
      "åħļåĴĮ": 8740,
      "çĨĶ": 8741,
      "ç¸±": 8742,
      "èĢ³åħ¶": 8743,
      "çļĦåĲį": 8744,
      "çļĦåŃ¦ä¹ł": 8745,
      "åĩıè½»": 8746,
      "æĬĺæī£": 8747,
      "å®ĹæĹ¨": 8748,
      "å¿ĺäºĨ": 8749,
      "è¯¸å¤ļ": 8750,
      "é«ĺè´¨éĩıåıĳå±ķ": 8751,
      "ä¸Ģé»ŀ": 8752,
      "åıĳä½ľ": 8753,
      "é¡Ĩ": 8754,
      "æ³ķå®ļ": 8755,
      "èºģ": 8756,
      "è©©": 8757,
      "åĲĮæĹ¶ä¹Ł": 8758,
      "åŁ¹è¨ĵ": 8759,
      "æ¹ĸäºº": 8760,
      "æĻºèĥ½åĮĸ": 8761,
      "æĺ¯å¤§": 8762,
      "é«ĺéĵģ": 8763,
      "å»ºä¸Ģ": 8764,
      "ä½įçļĦ": 8765,
      "ä»ĸä»¬åľ¨": 8766,
      "æ¼Ķç»İ": 8767,
      "åŃ¦çĶŁå¦¹": 8768,
      "æ´Ĺè¡£": 8769,
      "æĺ¯åĲ¦æľī": 8770,
      "æĿ¥æºĲäºİ": 8771,
      "æ¯«æĹł": 8772,
      "æŀ¯": 8773,
      "è¡Įåĭķ": 8774,
      "ä½łè¯´": 8775,
      "æħ¨": 8776,
      "æ¿ķ": 8777,
      "éĿłè¿ĳ": 8778,
      "å¹ħåº¦": 8779,
      "æĹĹèĪ°": 8780,
      "åĺīå®¾": 8781,
      "âĹİ": 8782,
      "ä¹Łå°±æĺ¯è¯´": 8783,
      "ä»ĸå°±": 8784,
      "å¯¹çĿĢ": 8785,
      "å¯¹æĬĹ": 8786,
      "å®ļä»·": 8787,
      "è§Ĩéĩİ": 8788,
      "åı£æĦŁ": 8789,
      "åĮĹæĸ¹": 8790,
      "ç«ĭè¶³": 8791,
      "æ©«": 8792,
      "éĬ·åĶ®": 8793,
      "æħĪåĸĦ": 8794,
      "pt": 8795,
      "ä¸įå¦¨": 8796,
      "åı¯çĶ¨": 8797,
      "çŃ±": 8798,
      "æĦ§": 8799,
      "ç¨ħ": 8800,
      "ä¹ĭäºº": 8801,
      "åĭµ": 8802,
      "å®ĮäºĨ": 8803,
      "èĬ±è´¹": 8804,
      "åľŁèĢ³åħ¶": 8805,
      "ç¶²è·¯": 8806,
      "çļĦä¸Ĭ": 8807,
      "è¿Ļåľº": 8808,
      "æıļ": 8809,
      "åĨħåŃĺ": 8810,
      "æĥ³èµ·": 8811,
      "åıĺæĽ´": 8812,
      "é¤Ĳå»³": 8813,
      "çļĦéķ¿": 8814,
      "ä¹Łä¸įèĥ½": 8815,
      "å®īç½®": 8816,
      "èİĬ": 8817,
      "ç´§å¯Ĩ": 8818,
      "ç¶²çµ¡": 8819,
      "åĽ½åĨħå¤ĸ": 8820,
      "çĩĥæĸĻ": 8821,
      "éĩĩè®¿æĹ¶": 8822,
      "å«Įçĸĳäºº": 8823,
      "TC": 8824,
      "æĢ§ä»·": 8825,
      "ç®¡æİ§": 8826,
      "çŁ¥èŃĺ": 8827,
      "å¸ĪèĮĥ": 8828,
      "æĿ¡æ¬¾": 8829,
      "ç¨İæĶ¶": 8830,
      "éĿłè°±": 8831,
      "èĢĲå¿ĥ": 8832,
      "æ´¾åĩºæīĢ": 8833,
      "ä¸ĢæĹ¥": 8834,
      "è¦ģæĬĬ": 8835,
      "æ²¾": 8836,
      "ä½ĵæ£Ģ": 8837,
      "åĭģ": 8838,
      "è§Ĩä¸º": 8839,
      "æµİåįĹ": 8840,
      "çīĽä»Ķ": 8841,
      "æ±ĩæĬ¥": 8842,
      "æ··åĩĿ": 8843,
      "appä¸ĭè½½": 8844,
      "è´Ŀå°Ķ": 8845,
      "å¡«åĨĻ": 8846,
      "----------------": 8847,
      "æĪĲå¹´äºº": 8848,
      "æİĴè¡Įæ¦ľ": 8849,
      "çļĦå®¶": 8850,
      "è§ģéĿ¢": 8851,
      "è¾ĥä½İ": 8852,
      "çļĦå½¢å¼ı": 8853,
      "å½¦": 8854,
      "çĶ¨åĬĽ": 8855,
      "ä½ĵåĨħ": 8856,
      "èº«çļĦ": 8857,
      "åĨįçĶŁ": 8858,
      "å©ī": 8859,
      "çģ«éĶħ": 8860,
      "æ¾³æ´²": 8861,
      "çĶµåĬ¨æ±½è½¦": 8862,
      "æĬĳåĪ¶": 8863,
      "81": 8864,
      "ne": 8865,
      "æĪĳçŁ¥éģĵ": 8866,
      "åĭī": 8867,
      "æĪĳä»¬å°±": 8868,
      "æĬķæĶ¾": 8869,
      "å®¢è½¦": 8870,
      "éĺ¿æĭī": 8871,
      "ä¸Ģå®ļä¼ļ": 8872,
      "å®ģæ³¢": 8873,
      "éĺ´éģĵ": 8874,
      "âĹĨ": 8875,
      "éĹ¸": 8876,
      "åħ¬æľī": 8877,
      "åĤµ": 8878,
      "è·ŁæĪĳ": 8879,
      "äºļé©¬éĢĬ": 8880,
      "çļĦç¡®": 8881,
      "åĴĮæľįåĬ¡": 8882,
      "ä¹ĭæĹħ": 8883,
      "ç¥ŀå¥ĩ": 8884,
      "æ°Ķè±¡": 8885,
      "ä¼¦æķ¦": 8886,
      "æĴŃæĶ¾åĻ¨": 8887,
      "æĸ°äº¬": 8888,
      "ä¿¡å¿µ": 8889,
      "çªĦ": 8890,
      "æİĴæŁ¥": 8891,
      "2004": 8892,
      "èĨ¨": 8893,
      "éģĶåĪ°": 8894,
      "è¿ĺéľĢè¦ģ": 8895,
      "æİ¥åı£": 8896,
      "ä¸ŃåĽ½åħ±äº§åħļ": 8897,
      "åįłæį®": 8898,
      "æ·«ä¹±": 8899,
      "æļ´éľ²": 8900,
      "è¿Ľåı£è½¦": 8901,
      "æľīåĬĽ": 8902,
      "æĢľ": 8903,
      "æĪĳæľī": 8904,
      "çĥ¹": 8905,
      "æ²¡æľīä»»ä½ķ": 8906,
      "åįİäºº": 8907,
      "å¡Į": 8908,
      "çķĻåŃ¦çĶŁ": 8909,
      "çĭĹä¸ĩ": 8910,
      "æ§į": 8911,
      "éļĲèĹı": 8912,
      "ä¸įç®¡æĺ¯": 8913,
      "ĠX": 8914,
      "åŃ¦æľŁ": 8915,
      "å»¢": 8916,
      "éĶĤ": 8917,
      "ä»ĬæĻļ": 8918,
      "æĢ»éĩı": 8919,
      "é¢Ĩå¯¼å¹²éĥ¨": 8920,
      "å¥³ä¼ĺ": 8921,
      "åľºä¸Ĭ": 8922,
      "åĨħæ¶µ": 8923,
      "çī©èģĶç½ĳ": 8924,
      "ç²¾èĩ´": 8925,
      "è³ŀ": 8926,
      "æĩĪ": 8927,
      "è¯Ńæĸĩ": 8928,
      "æĭ¿çĿĢ": 8929,
      "è¯ŀçĶŁ": 8930,
      "çļĦæ¶Īæģ¯": 8931,
      "æºĥ": 8932,
      "è¼Ľ": 8933,
      "1500": 8934,
      "æģĭçĪ±": 8935,
      "æįķé±¼": 8936,
      "éĤ»å±ħ": 8937,
      "åĩºéĹ¨": 8938,
      "åħ¬ç¤º": 8939,
      "èģĶéĢļ": 8940,
      "123": 8941,
      "åĪĹè¡¨": 8942,
      "åº§è°Ī": 8943,
      "å®¡è®¡": 8944,
      "ä»ĭç»įäºĨ": 8945,
      "èĵĿèī²": 8946,
      "è²¬ä»»": 8947,
      "äºĮç»´çłģ": 8948,
      "Ġä¸º": 8949,
      "çľĭä¸Ĭåİ»": 8950,
      "åĿł": 8951,
      "ç®¡å®¶": 8952,
      "ä»İæľª": 8953,
      "åı£èħĶ": 8954,
      "é½Ĳåħ¨": 8955,
      "èĿ´": 8956,
      "ç¨įå¾®": 8957,
      "ä¸Ģå¥Ĺ": 8958,
      "çĶ¨å¿ĥ": 8959,
      "äºļåįļ": 8960,
      "äººåĳĺçļĦ": 8961,
      "ĠIn": 8962,
      "ICP": 8963,
      "ox": 8964,
      "ps": 8965,
      "ä¸įåıĺ": 8966,
      "æİĥ": 8967,
      "é¢ł": 8968,
      "ç¼Ĩ": 8969,
      "èĮ¨": 8970,
      "èĬ±åĽŃ": 8971,
      "ç¢±": 8972,
      "ç¬¬äºĮå¤©": 8973,
      "å¼ŁåŃĲ": 8974,
      "å®ĹæķĻ": 8975,
      "ill": 8976,
      "æĲľç´¢å¼ķæĵİ": 8977,
      "è¯ĪéªĹ": 8978,
      "éĩĿå°į": 8979,
      "VR": 8980,
      "çļĦå°ıè¯´": 8981,
      "è°£": 8982,
      "èĮĦ": 8983,
      "åħļç»Ħç»ĩ": 8984,
      "ä¹¡éķĩ": 8985,
      "åĤ¨å¤ĩ": 8986,
      "çļĻ": 8987,
      "æĺ¯æĢİä¹Ī": 8988,
      "åŃ«": 8989,
      "åĪ¶çļĦ": 8990,
      "å¹³åı°çļĦ": 8991,
      "ç»ĨèıĮ": 8992,
      "éĽĨåĽ¢åħ¬åı¸": 8993,
      "indows": 8994,
      "èĿ´èĿ¶": 8995,
      "åľ¨åĨħçļĦ": 8996,
      "ä¸įæĺĵ": 8997,
      "ä¹Łéĥ½": 8998,
      "çŃīçļĦ": 8999,
      "æ¿ĢåĬ¨": 9000,
      "ç¥ĸåĽ½": 9001,
      "NBA": 9002,
      "å¯¼åĲĳ": 9003,
      "è¿Ĳä½ľ": 9004,
      "çĶŁæĢģçİ¯å¢ĥ": 9005,
      "åĪĥ": 9006,
      "ä¸Ģéĥ¨": 9007,
      "å±¡": 9008,
      "æĸ¹éĴĪ": 9009,
      "åĿĿ": 9010,
      "æŃ£éĿ¢": 9011,
      "å¸¸æĢģ": 9012,
      "æ»¥": 9013,
      "ark": 9014,
      "æ¸Ľå°ĳ": 9015,
      "èĤ¿çĺ¤": 9016,
      "æ··åĩĿåľŁ": 9017,
      "ä¸ĢèĤ¡": 9018,
      "åģī": 9019,
      "ä¹Ĳè¶£": 9020,
      "åĮ»å¸Ī": 9021,
      "è¿ŀéĶģ": 9022,
      "èĨ½": 9023,
      "å»īæĶ¿": 9024,
      "çļĦç®¡çĲĨ": 9025,
      "ç¡«": 9026,
      "å¥¹è¯´": 9027,
      "åįķåħĥ": 9028,
      "æ¯ıåĳ¨": 9029,
      "çªĥ": 9030,
      "æĹħéģĬ": 9031,
      "æľīä¸Ģç§į": 9032,
      "âĺĨ": 9033,
      "åħ¬åĬ¡åĳĺ": 9034,
      "çļĦæł·åŃĲ": 9035,
      "å®īéĿĻ": 9036,
      "å·¥ä½ľå®¤": 9037,
      "æļ«": 9038,
      "é§ķ": 9039,
      "yy": 9040,
      "Ġ)": 9041,
      "åľ¨æĸ°": 9042,
      "æĹ¶æľº": 9043,
      "å½±åĥı": 9044,
      "è®¾å®ļ": 9045,
      "è¼¯": 9046,
      "è®ĵäºº": 9047,
      "éĺ»æŃ¢": 9048,
      "æ½ľåľ¨": 9049,
      "åĮĸå¦Ĩåĵģ": 9050,
      "è²¿æĺĵ": 9051,
      "äº¤å¾Ģ": 9052,
      "end": 9053,
      "are": 9054,
      "çĶ¢çĶŁ": 9055,
      "tv": 9056,
      "ä¿º": 9057,
      "çĶ¨åľ°": 9058,
      "åĨħèĴĻåı¤": 9059,
      "æĬĬæĪĳ": 9060,
      "é£ŁæĿĲ": 9061,
      "ä¸¦ä¸Ķ": 9062,
      "????": 9063,
      "åĲĪçĲĨçļĦ": 9064,
      "æĢ§ä»·æ¯Ķ": 9065,
      "çļĦçĥŃ": 9066,
      "å®µ": 9067,
      "ä¸įåıĹ": 9068,
      "å¤§äºİ": 9069,
      "èĭĳ": 9070,
      "å¸¸å§Ķä¼ļ": 9071,
      "åįķçº¯": 9072,
      "ä¼ĺèī¯": 9073,
      "è§ģè¿ĩ": 9074,
      "éĿĴæµ·": 9075,
      "èĶ½": 9076,
      "æĮ¯åħ´": 9077,
      "éĭĴ": 9078,
      "ba": 9079,
      "èĩªæĳ¸": 9080,
      "åĪĨæ³Į": 9081,
      "ç¬¬åħ«": 9082,
      "å¸¦åĪ°": 9083,
      "æ±Łæ¹ĸ": 9084,
      "ä¾Ŀçħ§": 9085,
      "çĭ¬å®¶": 9086,
      "âĢĻ,": 9087,
      "ä¸įåĥı": 9088,
      "åŃ¦å®¶": 9089,
      "æĹłæ¯Ķ": 9090,
      "ä»İä¸ļ": 9091,
      "æĵ¬": 9092,
      "é»ĳäºº": 9093,
      "è¿ľè¿ľ": 9094,
      "ç¼ºçĤ¹": 9095,
      "æľīä¸Ģå¤©": 9096,
      "éĻĦä»¶": 9097,
      "è°ľ": 9098,
      "å¹³ç¨³": 9099,
      "çĪ±å¿ĥ": 9100,
      "æĻ¯çĤ¹": 9101,
      "åĿĩåĮĢ": 9102,
      "180": 9103,
      "Ġè¿Ļ": 9104,
      "è¯¾é¢ĺ": 9105,
      "å¼Ģå¥ĸç»ĵæŀľ": 9106,
      "man": 9107,
      "åĵģè³ª": 9108,
      "å¾ĹåĪĨ": 9109,
      "æī¾åĪ°äºĨ": 9110,
      "åı¦ç±»": 9111,
      "åı«å£°": 9112,
      "æĶ¹éĿ©å¼ĢæĶ¾": 9113,
      "å¼ķèµ·çļĦ": 9114,
      "ä¼ĺç§ĢçļĦ": 9115,
      "åĲĪéĢĤçļĦ": 9116,
      "äººä¸º": 9117,
      "åľ°çĲĨ": 9118,
      "éĴī": 9119,
      "é¢ĦèŃ¦": 9120,
      "æľĢæĸ°çļĦ": 9121,
      "çį»": 9122,
      "é½¡": 9123,
      "ãĢĤãĢĤãĢĤ": 9124,
      "ĠCh": 9125,
      "è§Ģçľĭ": 9126,
      "åħħåĪĨåıĳæĮ¥": 9127,
      "ä¸ļåĨħäººå£«": 9128,
      "åķ¤": 9129,
      "æ¼²": 9130,
      "ä¸ŃåĽ½äººæ°ĳ": 9131,
      "ç®¡çĲĨçļĦ": 9132,
      "ç¯ī": 9133,
      "åĵĪå°Ķ": 9134,
      "çĩĥçĥ§": 9135,
      "èĪĨè®º": 9136,
      "æĺ¯ä½ł": 9137,
      "å¥ł": 9138,
      "èĦĸ": 9139,
      "æµģæ°´": 9140,
      "é¢ĳç¹ģ": 9141,
      "éĺŁéķ¿": 9142,
      "ç±»åŀĭçļĦ": 9143,
      "èĥ½åĬĽçļĦ": 9144,
      "åıĳå¸ĥä¼ļ": 9145,
      "å«©å¦¹": 9146,
      "èļģ": 9147,
      "ĠRes": 9148,
      "ä¸Ģå¼Ģå§ĭ": 9149,
      "å¼Ģè®¾": 9150,
      "åīįè¿Ľ": 9151,
      "åĨĻä½ľ": 9152,
      "æĺİæĺ¾çļĦ": 9153,
      "éĨ«çĻĤ": 9154,
      "çĽ¸å½ĵäºİ": 9155,
      "Ġ\\": 9156,
      "å¥½å¥ĩ": 9157,
      "å¼ĢéĢļ": 9158,
      "å¾ĹäºĨ": 9159,
      "åĿİ": 9160,
      "æŃ£çīĪ": 9161,
      "æİ¥ç§į": 9162,
      "è·¯å¾Ħ": 9163,
      "è¯ķç®¡": 9164,
      "åĪĩåī²": 9165,
      "çĻ¾åĪĨçĤ¹": 9166,
      "è¾Ĳå°Ħ": 9167,
      "åıĽ": 9168,
      "åľ¨ä½¿çĶ¨": 9169,
      "èĥ½ä¸įèĥ½": 9170,
      "éĩįé»ŀ": 9171,
      "æ¸ħåįķ": 9172,
      "éħįèµĦ": 9173,
      "çĶµåŃĲåķĨåĬ¡": 9174,
      "å¾Ĳå»ºä¸Ģ": 9175,
      "èģĶåĲĪåĽ½": 9176,
      "èŁ¹": 9177,
      "çļĦçİ¯å¢ĥ": 9178,
      "æĪĢ": 9179,
      "ä¸Ģéĥ¨åĪĨ": 9180,
      "çĿ¿": 9181,
      "ç§ĳåŃ¸": 9182,
      "æ£į": 9183,
      "ä¸¤å¤§": 9184,
      "ãģĤ": 9185,
      "é©¬ä¼ļ": 9186,
      "è¶Ĭå¤ļ": 9187,
      "åį¡åĵĩ": 9188,
      "äºīéľ¸": 9189,
      "éĹľæ³¨": 9190,
      "é¢Ŀåº¦": 9191,
      "æ¬²æľĽ": 9192,
      "éįĭ": 9193,
      "çļĦæľĢ": 9194,
      "ç»Ĵ": 9195,
      "ä¸įæ¸ħ": 9196,
      "åĴĮå¤§": 9197,
      "ä¸»åĬĽ": 9198,
      "èĢĮæĿ¥": 9199,
      "ä¸ĭæĿ¥çļĦ": 9200,
      "åŃĲå®«": 9201,
      "å¥½çľĭ": 9202,
      "å¸ĤåĢ¼": 9203,
      "ä¸»ç¾©": 9204,
      "èģĮèĥ½": 9205,
      "éĴ±åĮħ": 9206,
      "åº·å¤į": 9207,
      "é£Łåĵģå®īåħ¨": 9208,
      "é»ĺé»ĺ": 9209,
      "ast": 9210,
      "ä¸Ľ": 9211,
      "çļĦæĬķèµĦ": 9212,
      "å¤¥": 9213,
      "æľīéĴ±": 9214,
      "å°±æ²¡æľī": 9215,
      "ä¿Ŀç½Ĺ": 9216,
      "æİ¨åĩºäºĨ": 9217,
      "è®°ä½ı": 9218,
      "ä¾Ĩèĩª": 9219,
      "ä¾ĭåŃĲ": 9220,
      "èĶĵ": 9221,
      "çµĲåĲĪ": 9222,
      "èª¿æŁ¥": 9223,
      "ç²®é£Ł": 9224,
      "åįģä¹Ŀå¤§": 9225,
      "OR": 9226,
      "me": 9227,
      "ĠæĿ¥æºĲ": 9228,
      "åŃ¦å¦¹": 9229,
      "ä½łçľĭ": 9230,
      "é¦ĸåıĳ": 9231,
      "çº¦ç¿°": 9232,
      "èĭ±åľĭ": 9233,
      "å¤±æľĽ": 9234,
      "çıŃåŃĲ": 9235,
      "æ¸©é¦¨": 9236,
      "éĢ²ä¸ĢæŃ¥": 9237,
      "èĽĽ": 9238,
      "çŁŃåıĳ": 9239,
      "arib": 9240,
      "æĬ±çĿĢ": 9241,
      "è¿ĲèĲ¥åķĨ": 9242,
      "åİĺç±³": 9243,
      "Ġæ¬§ç¾İ": 9244,
      "éĿĸ": 9245,
      "ä¹ĭéĻħ": 9246,
      "éķ¿æĺ¥": 9247,
      "çħ§æĺİ": 9248,
      "çİ¯æ¯Ķ": 9249,
      "èĲ½åľ¨": 9250,
      "åıĮé£ŀ": 9251,
      "ç¶²åıĭ": 9252,
      "éģŃåıĹ": 9253,
      "åįĵè¶Ĭ": 9254,
      "é¢Ĺç²Ĵ": 9255,
      "çĶ©": 9256,
      "æĺ¯ä»ĸ": 9257,
      "æĺ¯åı¯ä»¥": 9258,
      "å¿ĥæĢģ": 9259,
      "åĲĪä¼Ļ": 9260,
      "å¤ĸåĩº": 9261,
      "åľºåľ°": 9262,
      "ãĢĤâĢĿâĢľ": 9263,
      "ç¿ħ": 9264,
      "åĨľäº§åĵģ": 9265,
      "å¨±ä¹Ĳåľº": 9266,
      "ä¸įæĸŃçļĦ": 9267,
      "âĸ³": 9268,
      "æ²Ļåıĳä¸Ĭ": 9269,
      "åĨħå¤ĸ": 9270,
      "èĢģæĹ§": 9271,
      "æľįçĶ¨": 9272,
      "è°ĥæİ§": 9273,
      "è²ĵ": 9274,
      "æł¡èĬ±": 9275,
      "å¯ĨéĽĨ": 9276,
      "ebook": 9277,
      "ec": 9278,
      "ä¸Ģé¡¹": 9279,
      "æĮ¨": 9280,
      "åģ´": 9281,
      "æŃ¤äºĭ": 9282,
      "æĶ¯æı´": 9283,
      "çĨĬçĮ«": 9284,
      "éĥ½çŁ¥éģĵ": 9285,
      "æĶ¾ç½®": 9286,
      "æ°ĶåĢĻ": 9287,
      "åºĹçļĦ": 9288,
      "æĮīéĴ®": 9289,
      "èķ´": 9290,
      "è±ĨèħĲ": 9291,
      "èĩªè¡Įè½¦": 9292,
      "å·©åĽº": 9293,
      "EX": 9294,
      "åľ¨ä¸Ń": 9295,
      "æķŀ": 9296,
      "åĴ½": 9297,
      "è¿ĩåº¦": 9298,
      "çľĭä¼¼": 9299,
      "å®ŀåľ°": 9300,
      "éĩįç»Ħ": 9301,
      "å½ĵä»£": 9302,
      "ä¼łè¾ĵ": 9303,
      "å±±åĮº": 9304,
      "çļĦä¸Ģæ¬¡": 9305,
      "è¿½ç©¶": 9306,
      "éĩĩçĶ¨äºĨ": 9307,
      "åį¡åĵĩä¼Ĭ": 9308,
      "aa": 9309,
      "Ġäºļæ´²": 9310,
      "çļĦæĹ¥åŃĲ": 9311,
      "è´¿": 9312,
      "æĸ°å»º": 9313,
      "åīįåĪĹ": 9314,
      "åįİå¤ı": 9315,
      "ãĥĳ": 9316,
      "ĠID": 9317,
      "è½¿è½¦": 9318,
      "Ľèµ·": 9319,
      "çļĦåİŁ": 9320,
      "äººä¸İ": 9321,
      "æ°´ä¸Ń": 9322,
      "åķĨåŁİ": 9323,
      "åħ±è¯Ĩ": 9324,
      "ä¼ģä¸ļå®¶": 9325,
      "èī°éļ¾": 9326,
      "å¶": 9327,
      "ä¸ĭçıŃ": 9328,
      "åħ¥å¢ĥ": 9329,
      "åĨħåľ°": 9330,
      "åıĳå¸ĥäºĨ": 9331,
      "è¿İæİ¥": 9332,
      "èĩªåĬ¨åĮĸ": 9333,
      "è·¨è¶Ĭ": 9334,
      "å°ıåı¯çĪ±": 9335,
      "ä½łæľī": 9336,
      "åĲĦçķĮ": 9337,
      "åıĹæ¬¢è¿İ": 9338,
      "çĻ½çļĻ": 9339,
      "æĢ»çĽĳ": 9340,
      "èĹī": 9341,
      "æ¾¤": 9342,
      "èħĲè´¥": 9343,
      "å½ĵå±Ģ": 9344,
      "ç»ıæµİç¤¾ä¼ļ": 9345,
      "ant": 9346,
      "é¥®æĸĻ": 9347,
      "éĻ¤æŃ¤ä¹ĭå¤ĸ": 9348,
      "ĠæĿİ": 9349,
      "åı¯æĢķ": 9350,
      "å¥½å¤ļ": 9351,
      "å¸ĤçļĦ": 9352,
      "åı£æ´»": 9353,
      "ä¸¤å¤©": 9354,
      "æ®·": 9355,
      "åĪ«äººçļĦ": 9356,
      "é¦ĸè¦ģ": 9357,
      "çĹħçļĦ": 9358,
      "åĩłæ¬¡": 9359,
      "æ²¹ä»·": 9360,
      "æ¸¸æĪıçļĦ": 9361,
      "åħļåĳĺå¹²éĥ¨": 9362,
      "æĹ©é¤ĲåĬłçĽŁ": 9363,
      "åľ¨åĵªéĩĮ": 9364,
      "äººåĿĩ": 9365,
      "å¾¹": 9366,
      "æ¯¯": 9367,
      "ä¹Łæĺ¯ä¸Ģ": 9368,
      "æīĵå·¥": 9369,
      "éĽĨåĲĪ": 9370,
      "å¢ŀæ·»": 9371,
      "è±¬": 9372,
      "çĽ¸åħ³éĥ¨éĹ¨": 9373,
      "æĬµè¾¾": 9374,
      "email": 9375,
      "è±Ĳå¯Į": 9376,
      "çļĦçĶŁäº§": 9377,
      "å¤§è§Ħæ¨¡": 9378,
      "åĽ½æ¨¡": 9379,
      "éģķ": 9380,
      "çĻ½å¤©": 9381,
      "å½±åĵįåĬĽ": 9382,
      "äº§ä¸ļåıĳå±ķ": 9383,
      "æ½®æµģ": 9384,
      "æľĢåĲİä¸Ģ": 9385,
      "æ¿Ģæĥħåķªåķª": 9386,
      "æ·¡æ·¡": 9387,
      "æµĻæ±Łçľģ": 9388,
      "ä¸ĵæ³¨äºİ": 9389,
      "All": 9390,
      "è¿Ļä»½": 9391,
      "åı¯æĮģç»Ń": 9392,
      "åħ¥äºĨ": 9393,
      "åĽŀå¤´": 9394,
      "æİ¨è¡Į": 9395,
      "ç»Ħå»º": 9396,
      "é¢ĳçİĩ": 9397,
      "æ¨¡åħ·": 9398,
      "æ¾ľ": 9399,
      "åı²ä¸Ĭ": 9400,
      "ä¸Ńåįİæ°ĳæĹı": 9401,
      "åĲķå¸ĥ": 9402,
      "min": 9403,
      "Ġæľ¬": 9404,
      "ä¸Ģæĸ¹": 9405,
      "æĪĲåĵģ": 9406,
      "å»ļ": 9407,
      "ä»İä¸¥": 9408,
      "å®¢æĪ¿": 9409,
      "åĪ«å¢ħ": 9410,
      "ãĥķ": 9411,
      "èģĮåĳĺ": 9412,
      "æ³¨æĦıåĪ°": 9413,
      "The": 9414,
      "å¼Ģåı£": 9415,
      "æŃ¥ä¼Ĳ": 9416,
      "éºŁ": 9417,
      "åĹ¨": 9418,
      "ç»¿åĮĸ": 9419,
      "åįģåĪĨè¯±äºº": 9420,
      "åĦªåĭ¢": 9421,
      "æ£ĭçīĮæ¸¸æĪı": 9422,
      "çī¹æĸ¯æĭī": 9423,
      "æĺ¯çļĦ": 9424,
      "å¥®": 9425,
      "ä¸Ĭæ¼Ķ": 9426,
      "æ°´æ³¥": 9427,
      "ä¸ŃåĽ½ç»ıæµİ": 9428,
      "ç²¾å¯Ĩ": 9429,
      "é£İæĻ¯": 9430,
      "è³´": 9431,
      "èĬĤçľģ": 9432,
      "è¶³ä»¥": 9433,
      "å¨±ä¹Ĳå¹³åı°": 9434,
      "æ³¨æĦıäºĭé¡¹": 9435,
      "éĩİå¤ĸ": 9436,
      "éŃĶæ³ķ": 9437,
      "å°Īå®¶": 9438,
      "æĪĲç«ĭäºİ": 9439,
      "ä¸»æĮģäºº": 9440,
      "å¥īçĮ®": 9441,
      "è¾ĪåŃĲ": 9442,
      "VIP": 9443,
      "ist": 9444,
      "éĽ¯": 9445,
      "ä½łä¸į": 9446,
      "åĲĮè¡Į": 9447,
      "çĶµè·¯": 9448,
      "å°Ĩç»§ç»Ń": 9449,
      "æ£Ħ": 9450,
      "çĶ·çļĦ": 9451,
      "å¿ħå®ļ": 9452,
      "æĭīæĸ¯": 9453,
      "èĢĥèĻĳåĪ°": 9454,
      "æŀ£": 9455,
      "åī¥": 9456,
      "å¼ºåĬ¿": 9457,
      "åıįæŃ£": 9458,
      "è¬Ĥ": 9459,
      "æĲºå¸¦": 9460,
      "her": 9461,
      "Ġä¸ĭè½½": 9462,
      "å¯¡": 9463,
      "å¥³æľĭåıĭ": 9464,
      "åīįæĿ¥": 9465,
      "åİ»åģļ": 9466,
      "å®īå¿ĥ": 9467,
      "æ°ĳçľ¾": 9468,
      "çļĦä¸Ģéĥ¨åĪĨ": 9469,
      "æľĭåıĭåľĪ": 9470,
      "ç§Łå®¢": 9471,
      "éŀŃ": 9472,
      "èģ²éŁ³": 9473,
      "bt": 9474,
      "åĵİ": 9475,
      "åľ°åŁŁ": 9476,
      "æľĢé«ĺçļĦ": 9477,
      "å®¢åİħ": 9478,
      "æ¾Ħ": 9479,
      "åĨ·åį´": 9480,
      "ä¸ĢèĦ¸": 9481,
      "è¿Ļä¸¤ä¸ª": 9482,
      "åĢĺ": 9483,
      "çĲĨæĢ§": 9484,
      "éľĨ": 9485,
      "è¾¾åĪ°äºĨ": 9486,
      "è¿Ļä¸ªæĹ¶åĢĻ": 9487,
      "æľĽçĿĢ": 9488,
      "åı«åģļ": 9489,
      "çŀ§": 9490,
      "æ²īé»ĺ": 9491,
      "çķ¢æ¥Ń": 9492,
      "çļĦè½¦": 9493,
      "ä¸ªä½ĵ": 9494,
      "æĸ°è½¦": 9495,
      "åīįæıĲ": 9496,
      "éĩĮæĸ¯": 9497,
      "å·²æĪĲä¸º": 9498,
      "æ³¨å°Ħ": 9499,
      "åħ±å»º": 9500,
      "æĭīåħĭ": 9501,
      "æĸĹäºī": 9502,
      "çļĦåĽ½å®¶": 9503,
      "åĮ¯": 9504,
      "å°±å¼Ģå§ĭ": 9505,
      "æ®ĺ": 9506,
      "ä¾Ľæĩī": 9507,
      "è¿ĳå¹´": 9508,
      "åıĤåĬłäºĨ": 9509,
      "äººæĸĩ": 9510,
      "èĢ½": 9511,
      "å¤§ä½¿": 9512,
      "åĪĨçļĦ": 9513,
      "ä¿ĿèŃī": 9514,
      "çĶ·æľĭåıĭ": 9515,
      "åħļæĶ¯éĥ¨": 9516,
      "ç§ĳåŃ¦å®¶": 9517,
      "acebook": 9518,
      "Â¥": 9519,
      "ãĦ": 9520,
      "çļĦåŃ©åŃĲ": 9521,
      "å¥¹åľ¨": 9522,
      "æİ¨åĩºçļĦ": 9523,
      "åĮħè£¹": 9524,
      "çĮ¥": 9525,
      "åĮĹäº¬æĹ¶éĹ´": 9526,
      "ä¹ħçļĦ": 9527,
      "âĢĶâĢĶâĢĶâĢĶ": 9528,
      "çĦ¦çĤ¹": 9529,
      "é³¥": 9530,
      "æ»´æ»´": 9531,
      "CC": 9532,
      "Ġç¾İ": 9533,
      "ä¸ªçĻ¾åĪĨçĤ¹": 9534,
      "çĶ¨è½¦": 9535,
      "æĸ°çīĪ": 9536,
      "çĶµç«ŀ": 9537,
      "è³ĵ": 9538,
      "è¿ĲåĬ¨åĳĺ": 9539,
      "æĳĦåĥıå¤´": 9540,
      "åľ¨åħ¨åĽ½": 9541,
      "åİ¢": 9542,
      "åıĳçĶµ": 9543,
      "çľĭå¥½": 9544,
      "çľģæĶ¿åºľ": 9545,
      "å¤±ä¸ļ": 9546,
      "åħ©äºº": 9547,
      "çļĩå®¶": 9548,
      "ä»ķ": 9549,
      "åĴĮä»ĸ": 9550,
      "ç»ıè´¹": 9551,
      "æĴ©": 9552,
      "ç»ĵç®Ĺ": 9553,
      "æĶ¹ç¼ĸ": 9554,
      "åħįè´£": 9555,
      "éĽ»èħ¦": 9556,
      "éĩĳèŀįæľºæŀĦ": 9557,
      "æ¶µçĽĸ": 9558,
      "EN": 9559,
      "ain": 9560,
      "be": 9561,
      "ä¸ºæł¸å¿ĥ": 9562,
      "è¿ĻæĿ¡": 9563,
      "æ¸Ĭ": 9564,
      "å¥³çļĦ": 9565,
      "éķ¿åıĳ": 9566,
      "èĮİ": 9567,
      "ä¸Ńå¿ĥçļĦ": 9568,
      "Ġ2017": 9569,
      "å°´": 9570,
      "çĦļ": 9571,
      "å¹³éĿ¢": 9572,
      "çĽ¸æľº": 9573,
      "æķ´é«Ķ": 9574,
      "å¯Ĩåº¦": 9575,
      "å®¢æĪ·çļĦ": 9576,
      "å£ĵåĬĽ": 9577,
      "ug": 9578,
      "éĥµ": 9579,
      "ä¹ĭåĨħ": 9580,
      "ä¿¡è´·": 9581,
      "äº¤æīĢ": 9582,
      "èĢĥéªĮ": 9583,
      "å½¢å®¹": 9584,
      "our": 9585,
      "æī¶æĮģ": 9586,
[...]
